<unk>	0
,	-2.97047
▁the	-3.29667
.	-3.56671
▁of	-3.99135
▁=	-4.18019
▁to	-4.26295
▁and	-4.29671
▁a	-4.309
▁in	-4.32039
2	-4.47981
▁is	-4.60775
s	-4.65192
▁that	-4.65372
)	-4.65889
▁we	-4.76194
▁(	-4.90375
(	-4.94357
▁+	-4.9638
x	-5.20963
▁as	-5.23039
▁by	-5.3164
▁−	-5.34115
▁with	-5.36437
μ	-5.36501
▁for	-5.37583
▁2	-5.40834
▁d	-5.40859
▁	-5.45739
▁1	-5.50775
;	-5.56238
▁this	-5.5656
▁The	-5.61558
-	-5.64128
t	-5.64184
▁be	-5.67881
▁have	-5.6845
:	-5.68697
▁I	-5.69982
d	-5.70028
ing	-5.75086
▁r	-5.80276
▁on	-5.81307
▁it	-5.82064
▁you	-5.82453
’	-5.84892
▁∂	-5.86647
▁are	-5.86932
▁not	-5.86979
▁.	-5.90021
r	-5.94587
▁A	-5.99304
′	-5.99508
▁can	-5.99869
μν	-6.02169
▁0	-6.04136
▁at	-6.06588
g	-6.066
a	-6.07003
▁R	-6.09621
ν	-6.0978
▁an	-6.10489
▁In	-6.13396
▁x	-6.16079
▁spacetime	-6.161
▁from	-6.1673
▁S	-6.18506
▁g	-6.20721
▁chapter	-6.2217
▁“	-6.27429
ed	-6.29571
▁two	-6.30651
y	-6.30842
▁field	-6.3154
▁We	-6.32464
e	-6.328
τ	-6.33765
▁Einstein	-6.33984
0	-6.34606
▁t	-6.36024
▁time	-6.40896
▁so	-6.42536
1	-6.46288
n	-6.46656
▁μ	-6.48491
▁but	-6.49844
▁|	-6.49955
▁θ	-6.50073
▁which	-6.53901
ρ	-6.54643
▁T	-6.55378
i	-6.55826
▁will	-6.56088
λ	-6.57565
▁D	-6.58896
▁energy	-6.58988
3	-6.59951
▁p	-6.60293
▁M	-6.60488
φ	-6.6058
▁3	-6.61394
▁metric	-6.62199
▁V	-6.6288
▁equation	-6.64775
▁gravity	-6.6615
4	-6.66534
▁action	-6.67112
▁δ	-6.68809
▁coordinates	-6.69964
R	-6.71183
▁physics	-6.71512
▁L	-6.71879
▁P	-6.7196
▁out	-6.7294
▁could	-6.74904
▁also	-6.74906
ly	-6.75342
▁some	-6.77179
▁other	-6.77452
▁into	-6.78128
▁would	-6.7826
▁point	-6.78352
▁universe	-6.78382
▁or	-6.78544
▁ρ	-6.78773
▁space	-6.78859
▁us	-6.78932
▁one	-6.79354
▁y	-6.7965
▁4	-6.7992
▁theory	-6.8014
▁B	-6.81353
▁For	-6.8153
▁see	-6.81758
”	-6.81955
/	-6.83846
▁was	-6.84596
▁if	-6.84735
p	-6.84817
▁dt	-6.84888
).	-6.84963
▁tensor	-6.86054
▁has	-6.8723
▁particle	-6.88457
▁all	-6.8846
▁φ	-6.89313
∂	-6.90727
▁constant	-6.91795
▁quantum	-6.92225
▁X	-6.92366
▁only	-6.92938
dx	-6.94934
▁dx	-6.9504
▁more	-6.95314
A	-6.95373
▁about	-6.95488
▁example	-6.96194
▁,	-6.96549
▁ν	-6.96955
▁black	-6.96977
▁F	-6.97035
▁what	-6.97163
f	-6.97388
▁E	-6.97391
▁given	-6.97568
▁curvature	-6.98292
▁now	-6.98301
T	-6.99078
σ	-6.9937
m	-6.99765
V	-7.00794
▁obtain	-7.00857
h	-7.0264
▁As	-7.03231
▁our	-7.03558
?	-7.04745
θ	-7.08753
▁then	-7.1052
S	-7.10608
▁how	-7.108
▁0,	-7.11149
▁sin	-7.13395
▁do	-7.13477
▁up	-7.13912
!	-7.14025
▁This	-7.14104
▁same	-7.14739
▁coordinate	-7.14907
▁But	-7.14985
b	-7.15204
▁e	-7.15783
▁de	-7.15824
▁indices	-7.16089
▁W	-7.16399
▁Thus	-7.1746
▁light	-7.17701
▁mass	-7.18338
▁first	-7.18381
▁−1	-7.18941
▁just	-7.19546
▁between	-7.19547
),	-7.19685
▁vector	-7.20071
▁does	-7.2052
▁know	-7.2058
▁μν	-7.20863
c	-7.21587
▁than	-7.22882
▁gravitational	-7.22893
5	-7.2335
▁transformation	-7.23391
▁G	-7.23678
▁like	-7.24266
▁term	-7.26137
▁any	-7.2666
u	-7.27083
▁ds	-7.27687
F	-7.27948
▁c	-7.28091
k	-7.28162
▁λ	-7.29766
▁hole	-7.3107
▁here	-7.31573
ω	-7.31645
▁there	-7.32366
▁its	-7.32573
▁form	-7.32887
L	-7.33667
▁particles	-7.3377
▁terms	-7.34111
▁σ	-7.34816
D	-7.34861
▁Lorentz	-7.34983
▁course	-7.3553
▁J	-7.36604
▁To	-7.36844
π	-7.37046
▁momentum	-7.38626
▁back	-7.39167
▁general	-7.39309
▁≡	-7.39688
▁no	-7.39726
δ	-7.40373
W	-7.40396
▁way	-7.40544
▁C	-7.40583
▁flat	-7.41781
l	-7.42081
▁Sitter	-7.42359
▁since	-7.42998
▁m	-7.43384
▁You	-7.43593
▁f	-7.43991
▁principle	-7.44357
▁It	-7.45029
▁when	-7.46272
▁i	-7.46379
dimensional	-7.4707
▁should	-7.47496
▁write	-7.47509
▁these	-7.47607
▁he	-7.48229
▁b	-7.48363
▁H	-7.49202
▁might	-7.49696
▁See	-7.49761
▁his	-7.50026
v	-7.50411
−	-7.51217
▁curved	-7.52431
+	-7.52594
▁where	-7.52611
X	-7.53076
▁⃗x	-7.53106
▁∗	-7.53429
▁thus	-7.53898
▁Note	-7.54377
▁dr	-7.54543
▁0.	-7.54746
▁h	-7.54953
▁l	-7.56714
▁fact	-7.56925
▁ε	-7.57402
▁ω	-7.58002
▁matter	-7.58297
▁→	-7.58662
▁words	-7.58869
M	-7.589
▁known	-7.59239
▁may	-7.59388
▁already	-7.59682
∗	-7.59848
▁cos	-7.60045
▁over	-7.60379
ζ	-7.62724
▁around	-7.62932
in	-7.62946
▁cosmological	-7.63256
▁Newton	-7.63976
▁figure	-7.64041
▁VI	-7.64427
▁use	-7.6497
.)	-7.6525
j	-7.65395
er	-7.65778
▁equations	-7.67337
B	-7.68128
▁index	-7.68154
▁function	-7.68236
▁get	-7.69467
▁must	-7.69617
▁scalar	-7.7021
▁second	-7.70408
▁Let	-7.70737
▁potential	-7.70784
▁IX	-7.71219
▁Schwarzschild	-7.71965
▁length	-7.7219
▁relativity	-7.72761
▁surface	-7.73004
▁under	-7.73106
rS	-7.7342
▁Indeed	-7.73987
▁had	-7.74003
▁even	-7.74023
▁another	-7.74379
▁along	-7.74451
▁discussion	-7.74607
▁electromagnetic	-7.74778
o	-7.75101
α	-7.75204
▁set	-7.75896
▁k	-7.77382
O	-7.77989
▁invariance	-7.78093
G	-7.78318
▁defined	-7.78746
▁problem	-7.78818
▁invariant	-7.78936
▁∼	-7.79194
▁different	-7.79669
▁number	-7.80118
▁they	-7.80759
▁go	-7.80909
▁5	-7.80925
▁case	-7.80984
▁rS	-7.81033
▁derivative	-7.8143
▁each	-7.81527
−1	-7.82158
▁Since	-7.82407
▁group	-7.82747
▁s	-7.82805
▁v	-7.83317
q	-7.84227
▁matrix	-7.84614
▁motion	-7.84618
▁did	-7.84726
▁z	-7.84886
▁let	-7.85085
▁6	-7.85292
▁observer	-7.85497
▁n	-7.85699
▁solution	-7.85918
▁distance	-7.86386
▁N	-7.86774
▁Riemann	-7.86879
▁Gravity	-7.86892
▁using	-7.86938
▁)	-7.86993
▁find	-7.87019
P	-7.87714
▁horizon	-7.87837
▁such	-7.88326
U	-7.88498
▁√	-7.88585
.”	-7.88755
8	-7.88829
▁used	-7.89258
▁say	-7.89384
▁take	-7.89553
▁III	-7.89784
▁u	-7.8984
▁simply	-7.90158
▁sphere	-7.90185
′)	-7.91136
)2	-7.91213
▁η	-7.91532
▁down	-7.91603
▁rather	-7.91615
▁So	-7.91689
▁q	-7.92292
▁work	-7.9256
▁Newtonian	-7.92598
▁U	-7.92705
▁notation	-7.92721
▁been	-7.92753
▁>	-7.93062
▁vectors	-7.93128
▁(1)	-7.93182
▁namely	-7.94089
▁plane	-7.94665
▁were	-7.94906
▁mechanics	-7.95061
dt	-7.95764
▁If	-7.95972
▁need	-7.96853
I	-7.97364
▁scale	-7.97606
J	-7.98206
†	-7.98579
▁appendix	-7.9858
▁w	-7.98689
▁density	-7.99098
γ	-7.99812
▁your	-7.99841
▁lower	-7.99972
▁me	-8.00173
E	-8.00399
al	-8.00579
▁while	-8.0071
−1)	-8.01251
as	-8.01286
9	-8.01516
▁symmetry	-8.01728
▁result	-8.02047
▁world	-8.02339
▁K	-8.02507
▁α	-8.02798
▁hand	-8.02829
00	-8.03106
▁line	-8.03496
▁rotation	-8.03678
▁definition	-8.03889
▁special	-8.03903
▁far	-8.03914
or	-8.04394
▁Here	-8.04491
▁Then	-8.04556
⃗x	-8.05192
▁force	-8.05488
▁three	-8.05533
▁side	-8.06246
▁string	-8.06648
▁much	-8.06655
–	-8.06695
▁order	-8.06874
▁Minkowski	-8.07194
▁law	-8.07953
▁Now	-8.08382
▁book	-8.08519
]	-8.08854
▁part	-8.09116
▁change	-8.0933
▁transform	-8.09489
▁moving	-8.09499
▁mentioned	-8.1013
▁right	-8.10159
▁symmetric	-8.10769
▁II	-8.11052
▁equal	-8.11277
▁geodesic	-8.11451
▁holes	-8.11605
▁simple	-8.12728
▁1.	-8.12844
▁physical	-8.12893
▁again	-8.13003
▁gauge	-8.13015
▁differential	-8.13321
▁covariant	-8.13614
▁8	-8.13687
6	-8.14129
▁points	-8.143
▁exercise	-8.14447
η	-8.14707
▁through	-8.14811
▁dy	-8.14852
▁[	-8.14987
▁preceding	-8.15426
ε	-8.16145
|	-8.16228
▁something	-8.16664
▁hence	-8.16667
▁ψ	-8.16879
see	-8.16949
▁(3)	-8.17008
es	-8.17136
▁angular	-8.17351
▁many	-8.17375
▁O	-8.1751
▁condition	-8.17568
▁physicists	-8.17617
▁(2)	-8.17633
▁without	-8.17998
▁2-	-8.18007
▁ημν	-8.18426
and	-8.18437
▁after	-8.19187
▁VII	-8.19207
▁who	-8.19215
▁′	-8.19699
▁sense	-8.19812
▁−(	-8.20012
▁think	-8.20117
▁make	-8.20137
▁identity	-8.20442
▁possible	-8.20446
▁radius	-8.20455
▁reader	-8.20796
▁fields	-8.20971
▁Maxwell	-8.21086
▁curve	-8.21087
7	-8.21275
▁define	-8.21731
▁conservation	-8.21736
▁inverse	-8.21748
▁off	-8.22063
▁direction	-8.2208
▁dX	-8.22719
▁j	-8.22767
w	-8.22914
▁Appendix	-8.23048
▁β	-8.23099
▁both	-8.23585
▁said	-8.23715
▁speed	-8.23717
▁described	-8.2386
▁before	-8.25052
▁relativistic	-8.25097
1,	-8.25227
.3.	-8.25763
▁1,	-8.26409
▁wave	-8.26822
▁various	-8.27092
▁sign	-8.27493
▁object	-8.27497
▁most	-8.27697
▁want	-8.27994
2)	-8.28224
))	-8.28592
▁(4)	-8.28679
▁move	-8.28894
▁text	-8.28896
▁value	-8.28915
▁limit	-8.2898
▁<	-8.29192
▁dimensional	-8.29581
z	-8.29686
▁going	-8.29691
▁Consider	-8.29876
▁them	-8.29928
▁determine	-8.29961
▁particular	-8.30467
▁contrast	-8.30588
on	-8.30665
▁solve	-8.30997
▁long	-8.3128
▁From	-8.31311
▁ξ	-8.3159
√−	-8.31607
▁Killing	-8.32744
th	-8.32765
▁3-	-8.33274
▁components	-8.33374
▁left	-8.34209
▁well	-8.34219
▁Euclidean	-8.3422
▁my	-8.34665
▁(10)	-8.34961
▁By	-8.35081
▁4-	-8.35149
▁sinh	-8.35297
▁always	-8.35696
▁merely	-8.35722
▁−2	-8.35988
▁(5)	-8.36056
▁follows	-8.36181
▁(8)	-8.37273
▁understand	-8.37649
▁(6)	-8.37731
▁gives	-8.37947
▁Kałuza	-8.37969
▁radiation	-8.37971
▁τ	-8.38411
▁linear	-8.38616
κ	-8.38667
▁What	-8.38819
β	-8.38904
▁expression	-8.39318
▁boundary	-8.39514
▁square	-8.39971
12	-8.40349
ij	-8.40618
▁theoretical	-8.40959
▁small	-8.41018
▁written	-8.41095
▁cosh	-8.41318
▁approach	-8.41504
GM	-8.41531
▁At	-8.41724
▁explained	-8.41915
▁end	-8.41935
▁Q	-8.42041
▁consider	-8.42137
▁show	-8.42652
,”	-8.42656
▁geometry	-8.42677
▁later	-8.42721
▁algebra	-8.42841
▁transforms	-8.43207
▁respectively	-8.43484
▁argument	-8.4412
▁factor	-8.44219
▁less	-8.44424
▁spherical	-8.45005
▁dimensions	-8.4522
dr	-8.45438
▁With	-8.45638
▁rest	-8.46171
at	-8.46362
▁their	-8.46463
▁still	-8.46776
▁higher	-8.46828
▁derivatives	-8.4694
H	-8.47214
▁upper	-8.47628
▁calculate	-8.48123
▁dimension	-8.48181
▁integral	-8.48315
▁system	-8.48347
.1.	-8.48391
▁derivation	-8.48469
▁thought	-8.48628
K	-8.48891
▁frame	-8.49208
▁symbol	-8.49214
▁Spacetime	-8.49319
▁Show	-8.49327
▁(13)	-8.49331
▁depend	-8.49736
by	-8.50026
▁un	-8.50058
▁fundamental	-8.5018
.3	-8.50635
igure	-8.50895
▁(9)	-8.51002
▁initial	-8.51052
▁learned	-8.51151
▁once	-8.51216
en	-8.51231
▁immediately	-8.51933
▁because	-8.51933
▁cannot	-8.51963
▁anti	-8.52009
ity	-8.52083
▁actually	-8.52212
▁high	-8.52645
▁path	-8.52734
▁usual	-8.52843
▁VIII	-8.5289
▁(7)	-8.53037
ic	-8.53193
▁dl	-8.53291
▁transformations	-8.53643
▁Christoffel	-8.53704
▁spatial	-8.53794
▁fixed	-8.53802
▁infinitesimal	-8.5449
▁cosmic	-8.54614
form	-8.54972
The	-8.55102
▁effect	-8.55459
▁come	-8.5552
▁vanishes	-8.55533
▁ζ	-8.55677
▁away	-8.55721
▁important	-8.56324
▁scattering	-8.56441
−2	-8.56937
▁look	-8.57004
to	-8.57204
▁photon	-8.57328
▁(11)	-8.57782
▁tensors	-8.58013
▁free	-8.58263
▁κ	-8.58979
▁calculation	-8.59181
▁Kerr	-8.59235
11	-8.59778
▁́e	-8.60187
▁dark	-8.60354
▁objects	-8.60559
—	-8.6072
▁real	-8.61022
▁last	-8.61149
▁That	-8.61184
▁(12)	-8.61248
▁inside	-8.61295
▁indeed	-8.62132
▁turn	-8.62789
▁classical	-8.62992
▁give	-8.63089
▁least	-8.631
▁earlier	-8.63104
▁When	-8.63123
▁≃	-8.63154
▁locally	-8.63202
.1	-8.63258
▁(1	-8.63374
▁∂2	-8.63472
▁functions	-8.63603
▁π	-8.63618
▁am	-8.6381
▁unit	-8.63986
▁very	-8.6409
▁step	-8.64135
▁−∂	-8.64574
electromagnetism	-8.64675
▁1)	-8.64959
▁conformal	-8.64996
▁theorem	-8.65125
▁velocity	-8.65153
▁discussed	-8.65193
.6.	-8.65389
▁An	-8.65974
▁together	-8.661
▁(16)	-8.66106
▁often	-8.66109
▁(15)	-8.66112
▁earth	-8.66133
▁friend	-8.6614
▁parameter	-8.66154
▁weak	-8.66159
▁related	-8.66208
▁don	-8.66268
▁becomes	-8.66656
▁Planck	-8.66826
▁enough	-8.67121
▁writing	-8.67121
▁arbitrary	-8.67121
▁almost	-8.67121
▁sum	-8.67143
▁fluid	-8.67164
▁closed	-8.67294
▁determined	-8.67609
▁geodesics	-8.67768
▁forms	-8.67824
▁γ	-8.67945
▁great	-8.68102
▁whether	-8.68153
▁paper	-8.68202
▁One	-8.68268
▁2(	-8.68678
ξ	-8.69087
▁tells	-8.69103
▁good	-8.69194
▁familiar	-8.692
▁tell	-8.6935
▁waves	-8.6961
▁call	-8.69793
▁1−	-8.69938
▁3.	-8.69992
▁IV	-8.70031
▁positive	-8.70246
▁verify	-8.70246
▁check	-8.70253
▁Our	-8.70264
it	-8.70269
▁Z	-8.70399
▁being	-8.70465
▁paradox	-8.7129
▁expansion	-8.7131
▁formalism	-8.7131
▁Lie	-8.71347
▁expanding	-8.71454
▁understanding	-8.71765
ρσ	-8.72121
▁rotations	-8.72127
▁QFT	-8.72385
▁respect	-8.72386
▁easy	-8.72386
▁goes	-8.72461
▁(14)	-8.72467
▁⃗e	-8.72661
car	-8.73028
▁proper	-8.73355
▁perhaps	-8.73488
▁precisely	-8.73506
▁variation	-8.73551
▁region	-8.73596
est	-8.73803
▁)2	-8.74067
.4.	-8.74135
▁large	-8.74199
▁state	-8.74441
▁why	-8.74571
▁After	-8.74583
▁diagram	-8.74707
▁component	-8.74776
.2.	-8.74834
▁makes	-8.75119
an	-8.75352
▁role	-8.75683
▁position	-8.75685
▁Nut	-8.75697
▁√−	-8.75782
▁appears	-8.76536
the	-8.76613
▁Poin	-8.76808
▁made	-8.76852
▁local	-8.77085
▁area	-8.77277
.5.	-8.77696
▁measure	-8.778
▁ρσ	-8.77931
▁antisymmetric	-8.77942
▁next	-8.77942
▁quite	-8.77942
▁due	-8.78105
▁derived	-8.78141
ar	-8.78354
dy	-8.78621
φφ	-8.78811
▁dq	-8.78976
▁rotating	-8.79091
▁those	-8.79119
▁implies	-8.79164
▁10	-8.79213
▁combination	-8.79276
▁−1)	-8.79311
▁according	-8.79491
▁toward	-8.79625
▁man	-8.79677
le	-8.7983
▁recognize	-8.80254
▁zero	-8.80254
▁Hence	-8.80277
▁brane	-8.80352
▁Recall	-8.80363
re	-8.80452
▁variable	-8.80466
ψ	-8.81005
▁study	-8.81111
▁analysis	-8.81431
▁Feynman	-8.81469
▁Minkowskian	-8.81482
▁statement	-8.81633
⃗v	-8.82193
▁replace	-8.82583
▁him	-8.82649
▁Hawking	-8.82701
▁question	-8.82845
▁graviton	-8.82858
▁interaction	-8.82934
▁He	-8.83072
▁1/	-8.83407
▁keep	-8.83503
▁seen	-8.83797
▁cosmology	-8.83826
▁itself	-8.83826
▁Similarly	-8.83831
▁entropy	-8.83834
▁(19)	-8.83839
▁singularity	-8.83839
▁volume	-8.83855
▁̃h	-8.8389
▁bit	-8.83988
dX	-8.84308
▁There	-8.84308
▁students	-8.84387
Klein	-8.84614
▁lines	-8.84804
▁quantities	-8.85046
▁parallel	-8.85063
▁photons	-8.85083
▁distribution	-8.85087
▁Y	-8.85168
▁found	-8.85204
▁contains	-8.85518
▁̃	-8.85948
▁clear	-8.86162
▁⃗p	-8.8628
▁Lagrangian	-8.86281
▁Black	-8.86288
▁First	-8.86299
▁Mr	-8.86319
▁start	-8.86379
▁star	-8.86416
▁shown	-8.86522
▁electron	-8.86594
▁called	-8.86641
▁9	-8.86864
▁note	-8.86907
Hilbert	-8.87098
able	-8.87123
▁total	-8.87424
▁calculus	-8.8753
▁tangent	-8.8753
▁above	-8.8753
▁appear	-8.87637
▁falling	-8.87826
▁7	-8.88151
▁present	-8.88474
▁obvious	-8.88677
▁quantity	-8.88798
▁νλ	-8.89109
▁readers	-8.89422
with	-8.89424
▁2.	-8.89763
▁independent	-8.90017
▁answer	-8.90078
▁easily	-8.90078
▁How	-8.90093
▁upon	-8.90231
▁spaces	-8.90255
▁Field	-8.90391
.6	-8.90985
▁ij	-8.91285
▁Given	-8.91377
▁(18)	-8.91389
▁early	-8.91389
▁Curved	-8.91419
▁open	-8.9143
▁Some	-8.91436
▁comes	-8.91449
ημν	-8.91478
▁numbers	-8.91679
▁charged	-8.91691
is	-8.92251
▁Time	-8.92693
▁static	-8.927
▁(22)	-8.92735
▁power	-8.93057
?”	-8.93415
▁read	-8.93823
▁∞	-8.93892
▁origin	-8.93939
▁instead	-8.94026
▁Suppose	-8.94026
▁vacuum	-8.94027
▁better	-8.94027
spect	-8.94035
▁elementary	-8.94035
▁leading	-8.94154
▁̃λ	-8.94178
▁recall	-8.94201
▁Of	-8.94377
▁vary	-8.9507
ally	-8.95161
▁her	-8.95203
ion	-8.95291
▁Ricci	-8.95377
▁temperature	-8.95377
▁never	-8.95393
▁fall	-8.95467
▁specific	-8.95505
.3,	-8.95569
▁following	-8.9568
▁choice	-8.95758
▁kind	-8.95759
▁No	-8.9578
▁concept	-8.95911
▁ma	-8.96166
▁chapters	-8.96483
▁units	-8.967
▁people	-8.96747
▁story	-8.96751
▁equality	-8.96794
▁vanish	-8.97782
▁further	-8.98134
▁until	-8.98138
▁unified	-8.98139
)/	-8.98171
▁charge	-8.9822
ent	-8.98375
▁introduced	-8.98379
▁(0,	-8.98864
.5	-8.9931
▁natural	-8.99439
▁life	-8.99541
▁explicitly	-8.99574
μσ	-8.99625
▁observers	-8.99709
▁difference	-8.99983
▁structure	-9
▁word	-9.00019
ate	-9.00097
C	-9.00539
▁powers	-9.00573
▁mind	-9.00772
▁past	-9.00978
▁Again	-9.00988
▁current	-9.00995
▁new	-9.01001
▁equivalence	-9.01012
▁Big	-9.01018
▁χ	-9.01056
▁̇a	-9.01097
▁corresponding	-9.01211
xi	-9.01226
▁relation	-9.01448
▁element	-9.01449
▁things	-9.01478
▁saying	-9.01955
▁mean	-9.02273
▁put	-9.02302
▁standard	-9.02423
▁unknown	-9.02427
▁feel	-9.02437
▁conserved	-9.02439
▁outside	-9.02461
▁straight	-9.02469
vector	-9.02491
▁Holes	-9.02517
▁discovered	-9.02522
ˆ	-9.03465
ρν	-9.03508
▁University	-9.03893
▁product	-9.03894
▁follow	-9.0391
▁Confusio	-9.03915
▁box	-9.04053
▁describe	-9.04097
▁det	-9.0458
il	-9.04936
▁add	-9.04947
axis	-9.0496
▁variables	-9.05113
▁(20)	-9.05391
▁Using	-9.05395
In	-9.05421
▁massive	-9.05452
▁depends	-9.05556
▁values	-9.05945
▁expect	-9.06669
▁Next	-9.069
▁delta	-9.069
▁introduction	-9.069
▁connection	-9.06906
▁half	-9.06917
▁Bang	-9.06929
▁magnetic	-9.06943
▁×	-9.06982
▁Universe	-9.07006
▁Exercises	-9.07056
▁ħ	-9.07103
▁0)	-9.07123
▁ˆ	-9.07343
▁angle	-9.07519
▁laws	-9.07961
▁extra	-9.08264
▁negative	-9.08316
▁strong	-9.08318
▁third	-9.08439
▁(17)	-9.08452
▁relevant	-9.08475
▁representation	-9.08484
▁years	-9.08747
▁cone	-9.09185
▁convention	-9.092
▁conditions	-9.09274
▁means	-9.09466
▁per	-9.09633
▁size	-9.09669
ation	-9.09824
▁plug	-9.10001
▁single	-9.10003
▁matrices	-9.10003
▁either	-9.10007
▁nothing	-9.1002
▁̇α	-9.10027
▁started	-9.10238
13	-9.11021
▁4.	-9.11062
▁learn	-9.11073
▁normal	-9.11464
ce	-9.11488
▁turns	-9.11553
⟩	-9.11578
▁Euler	-9.11589
▁freedom	-9.11589
▁ordinary	-9.11589
▁log	-9.11683
(∂	-9.11722
▁clearly	-9.11765
▁fluctuations	-9.1197
▁circle	-9.1223
▁transport	-9.12673
▁ask	-9.12751
for	-9.1302
▁intrinsic	-9.1319
▁Prime	-9.13202
▁choose	-9.13202
▁redshift	-9.13202
▁theories	-9.13202
▁history	-9.13207
▁(21)	-9.13212
▁Relativity	-9.13213
▁More	-9.13241
▁yet	-9.13314
)(	-9.13321
▁generators	-9.13352
▁symbols	-9.13397
ab	-9.13715
▁amount	-9.13874
that	-9.14467
▁states	-9.1464
▁correct	-9.14716
▁actual	-9.14724
▁properties	-9.14843
ve	-9.15197
▁translation	-9.15503
▁root	-9.15514
▁able	-9.15607
▁curves	-9.15644
⃗e	-9.16081
▁consist	-9.16171
ρμ	-9.1623
̸=	-9.16508
▁addition	-9.16508
▁subject	-9.16508
▁setting	-9.16553
▁massless	-9.16564
▁timelike	-9.16613
▁too	-9.17036
▁corresponds	-9.17092
▁ball	-9.17254
sin	-9.17284
▁picture	-9.17289
▁holds	-9.17367
ur	-9.17465
▁MP	-9.1763
▁con	-9.18145
▁process	-9.18176
▁dynamics	-9.18202
▁few	-9.18203
▁place	-9.18205
▁isometry	-9.18209
▁nonrelativistic	-9.18243
ive	-9.18324
▁every	-9.18363
▁expected	-9.18412
▁compared	-9.1842
et	-9.18498
▁starting	-9.18646
▁experiment	-9.18907
▁pole	-9.18953
▁orbit	-9.18975
ter	-9.19097
▁re	-9.19249
▁μλ	-9.19293
▁notion	-9.19337
▁mention	-9.19403
which	-9.19502
▁talk	-9.19605
▁try	-9.19847
▁deal	-9.19861
▁Press	-9.19927
▁frequency	-9.19927
▁±	-9.19945
▁version	-9.20018
▁̃S	-9.20043
▁Not	-9.20068
▁conformally	-9.20131
▁1-	-9.20399
ial	-9.20489
▁⃗v	-9.20542
▁surfaces	-9.20626
▁1)-	-9.20686
▁clock	-9.20694
▁physicist	-9.20721
▁20	-9.20731
▁denote	-9.20735
▁become	-9.20758
=	-9.2098
▁rotational	-9.21034
.7	-9.21183
▁dS	-9.21542
▁four	-9.21673
▁characteristic	-9.21681
▁⃗E	-9.21681
▁Penrose	-9.21693
▁true	-9.217
▁Another	-9.21703
▁spacelike	-9.21757
st	-9.21853
...	-9.22156
▁,0	-9.22296
▁idea	-9.22404
▁doing	-9.22493
);	-9.22623
gg	-9.2314
▁AdS	-9.23167
▁Notes	-9.23308
.4	-9.23339
N	-9.23352
▁Coordinate	-9.23467
▁integration	-9.23467
▁Perhaps	-9.23479
▁defining	-9.23479
▁Physics	-9.23494
▁electric	-9.23504
▁however	-9.23541
▁best	-9.24031
▁represent	-9.24273
▁Space	-9.24319
▁denotes	-9.2446
▁cross	-9.24727
▁discuss	-9.24758
▁dz	-9.24784
Note	-9.2486
▁though	-9.24937
▁rule	-9.25023
▁effective	-9.25187
▁common	-9.25208
▁obtained	-9.2521
▁versus	-9.25285
▁apple	-9.25285
▁Yang	-9.25289
▁(24)	-9.2529
▁model	-9.2529
▁(23)	-9.25294
▁wrote	-9.25297
▁Also	-9.25344
▁told	-9.25397
▁acting	-9.25442
▁functional	-9.25447
▁old	-9.25486
▁5.	-9.2557
▁varying	-9.2572
▁done	-9.25764
▁solved	-9.26155
id	-9.26606
,0	-9.26828
▁shift	-9.26966
▁mathematical	-9.27017
▁Galilean	-9.27137
▁context	-9.27137
▁future	-9.27137
▁hyperbolic	-9.2714
Mills	-9.27148
▁mystery	-9.27149
▁somewhat	-9.27157
▁(∂	-9.27163
▁ever	-9.27183
el	-9.27306
▁involved	-9.27306
▁12	-9.2794
(1	-9.28111
▁hold	-9.28138
▁describes	-9.28355
▁forth	-9.28357
▁realize	-9.28689
▁encounter	-9.28836
▁remind	-9.28865
▁Future	-9.29024
▁determinant	-9.29024
▁little	-9.29024
▁recover	-9.29024
▁Just	-9.29024
▁null	-9.2903
▁Gauss	-9.29035
▁maximally	-9.29052
▁overall	-9.29054
▁certainly	-9.29121
▁interesting	-9.29161
▁rays	-9.29255
▁̃g	-9.29298
▁shows	-9.294
▁larger	-9.29482
▁amplitude	-9.29961
▁flow	-9.29974
▁proton	-9.2999
de	-9.30319
of	-9.30506
▁conclude	-9.3061
▁perfect	-9.30835
▁Unprime	-9.30947
▁deviation	-9.30947
▁Introduction	-9.30948
▁having	-9.30954
▁Once	-9.30956
▁sitting	-9.30957
▁dynamical	-9.30965
▁Weyl	-9.31007
10	-9.31085
▁indicated	-9.31106
▁evaluated	-9.31161
/2	-9.31176
▁particularly	-9.31269
un	-9.31449
▁studying	-9.31497
▁provides	-9.31548
▁worldline	-9.31948
νσ	-9.32298
±	-9.32479
▁∝	-9.3259
▁19	-9.3272
▁analog	-9.32739
▁relative	-9.32786
▁works	-9.32861
▁Kruskal	-9.32907
▁Principle	-9.32907
▁level	-9.32907
▁Presen	-9.32908
▁Part	-9.32908
▁stuff	-9.32909
▁embedding	-9.3291
▁eventually	-9.32918
▁useful	-9.32931
▁All	-9.32946
▁naturally	-9.33073
▁observed	-9.33103
▁−3	-9.33168
▁events	-9.33748
3,	-9.3384
▁atom	-9.34089
18	-9.34107
um	-9.34186
ħ	-9.3448
▁introduce	-9.3457
▁⃗B	-9.34907
ncidentally	-9.34921
▁These	-9.34979
▁−∞	-9.35072
θθ	-9.35273
▁Pas	-9.35494
ant	-9.35923
▁represents	-9.35984
αβ	-9.36426
Q	-9.36522
▁moment	-9.36697
▁construct	-9.36748
▁28	-9.36783
▁infinite	-9.36824
▁infinity	-9.36948
▁summation	-9.36948
▁section	-9.36949
▁view	-9.36971
▁fill	-9.36984
▁she	-9.37003
▁indicates	-9.37341
▁Is	-9.37363
▁prove	-9.37414
▁involves	-9.37483
▁run	-9.37555
▁needed	-9.37709
ist	-9.37936
▁student	-9.38068
′(	-9.38069
▁letter	-9.38107
▁00	-9.38113
▁reason	-9.38204
str	-9.38426
▁16	-9.38468
▁regard	-9.38509
▁interactions	-9.38615
▁speak	-9.38725
▁complex	-9.38803
▁trace	-9.39026
▁giving	-9.39032
▁involving	-9.39032
▁leave	-9.39032
▁proportional	-9.39032
▁Work	-9.39032
▁own	-9.39032
▁grand	-9.39042
▁polar	-9.39072
▁spheres	-9.39086
▁contained	-9.3919
▁generalized	-9.39237
▁suggests	-9.39391
▁reading	-9.39538
▁signs	-9.39867
21	-9.40061
▁amounts	-9.40278
▁5-	-9.408
▁derive	-9.40871
.6,	-9.40985
▁opposite	-9.41039
▁trivial	-9.4104
▁Fermi	-9.41159
▁presence	-9.41159
▁key	-9.41161
▁(25)	-9.41171
▁ground	-9.41202
▁associated	-9.41216
▁confused	-9.41236
▁analogy	-9.4136
.∗	-9.41446
▁axis	-9.41809
19	-9.42034
up	-9.42052
▁changes	-9.42617
▁parts	-9.4262
us	-9.4271
ness	-9.42773
▁day	-9.42777
▁appropriate	-9.43234
.4,	-9.43299
▁times	-9.43313
▁spin	-9.43317
▁Bianchi	-9.43333
▁quadratic	-9.43333
▁⃗X	-9.43333
▁scaling	-9.43333
▁smooth	-9.43333
▁pressure	-9.43334
▁(26)	-9.43334
▁school	-9.43335
▁Theory	-9.43336
▁data	-9.43336
▁finite	-9.4334
▁necessarily	-9.43345
▁Quantum	-9.43357
▁exactly	-9.43373
▁Notice	-9.43391
▁diagonal	-9.43458
▁below	-9.4349
▁6.	-9.43946
▁looking	-9.44098
▁Go	-9.44253
▁spacetimes	-9.44451
3)	-9.44493
▁source	-9.44573
▁textbook	-9.44586
▁manifold	-9.44621
.1,	-9.44927
▁GM	-9.44983
εμ	-9.45027
tion	-9.45441
▁confusion	-9.45555
▁convenience	-9.45555
▁determination	-9.45555
▁profound	-9.45555
▁varies	-9.45555
▁including	-9.45561
▁saw	-9.45575
▁λν	-9.45584
▁says	-9.45653
▁longer	-9.45706
▁On	-9.45934
ad	-9.46118
less	-9.46301
▁—	-9.46561
55	-9.46851
▁live	-9.47136
im	-9.4768
▁certain	-9.47774
⎛	-9.47828
⎞	-9.47828
▁Instead	-9.47828
▁material	-9.47828
▁Derive	-9.47828
▁↔	-9.47828
▁Zee	-9.47829
▁Equation	-9.47833
▁Riemannian	-9.47871
We	-9.47875
▁directly	-9.47921
▁̇R	-9.47933
▁heard	-9.47957
▁contracted	-9.47973
▁smaller	-9.47983
▁1).	-9.48222
▁reduces	-9.48223
▁talking	-9.48255
▁consisting	-9.4827
▁imagine	-9.48344
▁15	-9.48377
λρ	-9.48654
▁worked	-9.48715
qa	-9.48785
ac	-9.48887
▁event	-9.48902
–4	-9.48995
νλ	-9.49064
▁drop	-9.4916
▁pair	-9.49182
ec	-9.49505
▁play	-9.49669
▁integrate	-9.49807
16	-9.49853
ment	-9.50137
▁harmonic	-9.50154
urthermore	-9.50162
▁repeated	-9.50167
▁convenient	-9.50169
▁vielbein	-9.50169
▁evidently	-9.50172
▁anything	-9.50174
▁requirement	-9.50177
▁Dirac	-9.50179
▁Nature	-9.50179
▁distances	-9.50403
▁solutions	-9.50426
▁soon	-9.50721
ian	-9.50952
▁expand	-9.5105
▁′(	-9.51052
▁⃗∇	-9.51087
▁guy	-9.51529
▁exist	-9.51559
–2	-9.51708
▁elements	-9.51735
)−1	-9.51882
ir	-9.52056
▁̇X	-9.5214
▁/	-9.5232
▁carries	-9.52535
▁possibility	-9.52535
▁probably	-9.52535
▁uncertainty	-9.52535
▁approximation	-9.52535
▁Action	-9.52536
▁background	-9.52537
▁universal	-9.5254
▁formulation	-9.52542
▁escape	-9.52543
▁Evidently	-9.52551
▁near	-9.52552
▁topological	-9.52562
▁shell	-9.52582
▁variational	-9.52617
▁sun	-9.52652
▁discovery	-9.52697
▁⃗q	-9.52781
▁13	-9.52794
▁masses	-9.52852
ies	-9.52993
▁grr	-9.53016
▁taken	-9.53341
(3)	-9.53619
▁tr	-9.53812
▁∂0	-9.53903
′2	-9.54038
▁stars	-9.54422
ch	-9.5456
▁draw	-9.54824
▁similar	-9.54833
▁equivalent	-9.54851
▁prefer	-9.54854
▁st	-9.54949
▁Phys	-9.54963
▁agree	-9.54967
▁Curvature	-9.54974
▁avoid	-9.54974
▁beyond	-9.54974
▁knowledge	-9.54974
▁living	-9.54974
▁series	-9.54974
▁specify	-9.54974
▁minus	-9.54974
▁Index	-9.54975
▁(29)	-9.54981
▁While	-9.5499
▁century	-9.5499
▁existence	-9.54996
lugging	-9.55006
▁crucial	-9.55027
▁Well	-9.55044
▁head	-9.55049
▁entirely	-9.55089
▁north	-9.55386
▁gtt	-9.5543
▁cases	-9.55528
▁requires	-9.55547
▁happens	-9.55568
▁≡∂	-9.5585
ay	-9.55924
▁contain	-9.55947
σρ	-9.5638
▁account	-9.56458
(0)	-9.56715
!)	-9.56738
▁results	-9.56974
▁count	-9.57095
▁carry	-9.57154
▁νρ	-9.57257
▁entire	-9.57355
▁else	-9.57471
▁Wheeler	-9.57474
▁solving	-9.57474
▁literature	-9.57474
▁Unified	-9.57475
▁understood	-9.5748
▁readily	-9.57493
▁remember	-9.57501
▁internal	-9.57526
▁constructed	-9.57704
▁encountered	-9.57723
▁radial	-9.58011
▁stated	-9.58373
▁gas	-9.58487
▁alternative	-9.58815
▁remark	-9.58832
▁detail	-9.5887
▁feature	-9.59048
▁piece	-9.59054
▁coefficient	-9.59062
Y	-9.59569
▁̃gij	-9.59656
▁suppose	-9.59708
▁satisfy	-9.59715
▁General	-9.59853
ark	-9.59909
▁nice	-9.59944
te	-9.60005
▁Hubble	-9.60038
▁behavior	-9.60038
▁changing	-9.60038
▁minimum	-9.60038
▁satisfied	-9.60038
▁strength	-9.60038
▁studied	-9.60038
▁yourself	-9.60038
▁∇2	-9.60038
▁Two	-9.60038
▁south	-9.60038
▁based	-9.60038
▁invite	-9.6004
▁Even	-9.6004
▁Galileo	-9.60044
▁sometimes	-9.60047
▁Gravitational	-9.60056
na	-9.6011
▁hardly	-9.60129
▁GMN	-9.60142
▁pedagogical	-9.60233
▁map	-9.60244
▁⃗u	-9.60245
▁Lagrange	-9.60256
▁care	-9.60276
▁close	-9.60283
▁totally	-9.60292
▁really	-9.60378
▁spherically	-9.60413
▁slow	-9.60835
▁textbooks	-9.61171
▁7.	-9.61243
2).	-9.61447
▁method	-9.61646
.7.	-9.61739
like	-9.61864
mp	-9.61907
▁planet	-9.6193
▁basic	-9.62012
√	-9.62189
Z	-9.62243
See	-9.62248
▁compare	-9.62362
▁numerical	-9.62549
ul	-9.62583
▁civilization	-9.62669
▁empty	-9.62669
▁satisfies	-9.62669
▁contribution	-9.6267
▁separation	-9.62676
▁manifestly	-9.62684
▁everything	-9.62686
▁dependence	-9.62688
ear	-9.62715
+1	-9.6273
▁labeled	-9.62733
▁completely	-9.62772
▁looks	-9.62779
▁came	-9.62847
▁23	-9.62896
▁systems	-9.63031
▁authors	-9.63047
▁examples	-9.63177
▁ea	-9.63246
▁rate	-9.63252
om	-9.63385
▁allows	-9.63415
▁name	-9.63963
!”	-9.64009
▁̇	-9.64052
▁formula	-9.6434
▁angles	-9.6436
ow	-9.64427
▁Sd	-9.64481
▁electrons	-9.64758
▁Put	-9.64798
▁reach	-9.64815
▁test	-9.64821
▁They	-9.64856
⃗k	-9.6494
▁discover	-9.65001
ut	-9.65229
▁observational	-9.65275
tr	-9.65371
▁unchanged	-9.65372
▁apply	-9.65373
▁cancel	-9.65373
▁tiny	-9.65374
▁everyday	-9.6538
▁considerations	-9.65384
▁possibly	-9.6539
▁whose	-9.65392
▁slightly	-9.65416
▁famous	-9.65425
▁hanging	-9.65433
▁bad	-9.65449
▁regarded	-9.65618
▁spinors	-9.66056
17	-9.66129
▁problems	-9.66129
▁leads	-9.66166
▁(−	-9.6636
ell	-9.66567
▁Co	-9.66592
.2,	-9.66621
▁resulting	-9.67035
▁thing	-9.6741
indexed	-9.67621
You	-9.67725
This	-9.67725
▁non	-9.67778
▁absorb	-9.67803
▁emphasize	-9.67808
▁final	-9.68031
▁sure	-9.6805
▁18	-9.68063
For	-9.68084
▁restrict	-9.68137
▁Professor	-9.6815
▁divergence	-9.6815
▁helicity	-9.6815
▁isotropic	-9.6815
ıtre	-9.6815
▁Write	-9.6815
▁differentiate	-9.6815
▁slice	-9.6815
▁calculating	-9.68164
▁stellar	-9.68164
▁nearby	-9.68174
here	-9.68235
▁Light	-9.68256
▁allowed	-9.68302
▁took	-9.68346
▁low	-9.68368
▁highly	-9.68527
▁lP	-9.68557
lo	-9.68989
▁−1,	-9.692
▁fly	-9.69278
lectromagnetism	-9.6933
ry	-9.69451
▁arrive	-9.69643
▁correspond	-9.69648
ous	-9.70132
▁ξμ	-9.70219
▁sides	-9.70232
▁forces	-9.70278
▁gravitons	-9.7045
cos	-9.70881
▁steps	-9.70922
quivalence	-9.70928
▁class	-9.70976
▁⃗V	-9.71007
▁≤	-9.71007
▁kinetic	-9.71007
▁several	-9.71014
τρμν	-9.71018
▁list	-9.71059
▁finally	-9.71129
▁body	-9.71161
he	-9.71288
▁young	-9.71289
ence	-9.71357
▁freely	-9.71374
▁na	-9.71638
▁others	-9.71769
′′	-9.7184
▁2)	-9.71851
▁geometrical	-9.71992
age	-9.72365
▁include	-9.72577
....	-9.72663
▁circles	-9.72762
2)2	-9.72862
▁triangle	-9.72952
▁situation	-9.72964
▁contract	-9.73421
▁short	-9.73752
▁cover	-9.73752
▁bound	-9.73831
[	-9.73881
▁Cartan	-9.73948
▁Conservation	-9.73948
▁Gamow	-9.73948
▁Heisenberg	-9.73948
▁basis	-9.73948
▁mysterious	-9.73948
▁vertical	-9.73948
▁comoving	-9.73949
▁anthropic	-9.73955
▁deflection	-9.73955
▁appearance	-9.7396
▁xi	-9.73966
▁extremal	-9.73971
▁construction	-9.73975
▁acceleration	-9.73981
7;	-9.74084
▁perfectly	-9.74131
▁satisfying	-9.74321
▁theorists	-9.74342
▁physically	-9.74544
we	-9.74603
ers	-9.74621
2/	-9.74854
▁gij	-9.74981
▁math	-9.74982
▁generally	-9.75195
▁constants	-9.7524
μνρσ	-9.75261
min	-9.75541
▁experiments	-9.75639
▁ρμν	-9.75741
▁observation	-9.75943
▁operator	-9.76005
▁concepts	-9.7608
▁experience	-9.76631
▁evaluate	-9.7664
)∂	-9.76799
▁instant	-9.76858
3.	-9.76923
▁complete	-9.76933
Szekeres	-9.76978
▁Imagine	-9.76978
▁Palatini	-9.76978
▁focus	-9.76978
▁proceed	-9.76978
▁instance	-9.76979
▁collection	-9.76984
▁trick	-9.76985
▁stage	-9.76986
▁(30)	-9.76988
▁precession	-9.76989
▁De	-9.76993
▁poor	-9.76994
▁dimensionless	-9.77007
▁describing	-9.77012
▁sees	-9.77015
▁789	-9.77049
▁whatever	-9.77063
▁during	-9.77113
▁lot	-9.77123
owever	-9.77137
▁fun	-9.77139
33	-9.77241
ake	-9.77273
ward	-9.77283
▁pointing	-9.77286
▁increases	-9.77389
▁realized	-9.7754
μλ	-9.77653
0)	-9.77843
▁metrics	-9.77883
▁twistors	-9.77899
all	-9.78141
(0,	-9.782
out	-9.7836
▁(3	-9.78389
▁−4	-9.78449
▁provide	-9.78561
▁̈	-9.78623
▁...	-9.78662
▁dis	-9.78691
▁led	-9.78959
▁μρ	-9.78966
▁collapse	-9.79115
▁Do	-9.79286
νφ	-9.79332
▁causal	-9.79958
▁deep	-9.79971
▁pop	-9.79994
ifferential	-9.80027
▁Energy	-9.80103
▁central	-9.80103
▁clarity	-9.80103
▁description	-9.80103
▁doubt	-9.80103
▁microwave	-9.80103
▁themselves	-9.80103
▁dilation	-9.80104
▁taking	-9.80104
▁content	-9.80109
▁(27)	-9.8011
▁(28)	-9.80112
▁proposed	-9.8012
▁sort	-9.80132
▁̇q	-9.8015
▁consistent	-9.80162
▁SMaxwell	-9.80196
▁went	-9.80269
▁̃R	-9.80396
▁formation	-9.80404
▁0),	-9.80481
▁frames	-9.80512
▁groups	-9.80715
▁seem	-9.80753
▁notice	-9.8106
ip	-9.81075
▁hope	-9.81192
▁letters	-9.81588
▁thinking	-9.81717
▁World	-9.81881
vi	-9.82031
▁Xd	-9.82133
▁And	-9.8219
ight	-9.82202
▁refer	-9.82298
▁location	-9.82339
μρ	-9.82372
▁0).	-9.82391
▁twistor	-9.82442
=1	-9.82859
▁≪	-9.83005
▁repeat	-9.83142
▁apparent	-9.83209
▁flip	-9.83329
▁⃗W	-9.83329
▁Before	-9.83329
▁Geometry	-9.83329
▁Symmetry	-9.83329
▁extrinsic	-9.83329
▁subgroup	-9.83329
▁̄t	-9.83329
▁⃗n	-9.83329
▁Flat	-9.83329
▁equator	-9.8333
▁issue	-9.83335
▁coupling	-9.83335
▁Weinberg	-9.83336
▁Cartesian	-9.83337
▁complicated	-9.83339
▁insight	-9.83342
▁somehow	-9.8335
▁̈om	-9.83352
▁popular	-9.83353
▁plus	-9.83365
▁love	-9.83371
▁essentially	-9.83417
▁Start	-9.83418
▁dominated	-9.835
.5,	-9.83618
▁generated	-9.83652
ling	-9.8377
▁ready	-9.83827
ingly	-9.83829
jk	-9.83854
01	-9.84015
▁continue	-9.84068
ng	-9.84094
λν	-9.84137
▁eliminate	-9.84145
▁65	-9.84203
▁dV	-9.84647
▁My	-9.8473
▁192	-9.84888
ied	-9.85224
▁lead	-9.85369
ma	-9.85415
if	-9.85505
▁sound	-9.8568
λσ	-9.86139
▁measures	-9.86154
):	-9.86217
▁scales	-9.86295
▁help	-9.86401
▁guess	-9.8647
▁hard	-9.86589
▁original	-9.86622
▁front	-9.8666
▁column	-9.86663
▁mathematics	-9.86663
▁worry	-9.86663
▁≫	-9.86663
▁external	-9.86663
▁gave	-9.86664
▁interval	-9.86664
▁character	-9.86665
▁instructive	-9.86666
▁latitude	-9.86671
▁generalization	-9.86681
▁outgoing	-9.867
▁getting	-9.86701
▁except	-9.86701
▁Lema	-9.86761
▁lightlike	-9.86762
▁primed	-9.86796
▁slowly	-9.86817
▁separated	-9.86831
▁analogous	-9.86837
▁effects	-9.8687
▁⟨	-9.86919
▁knows	-9.86938
▁≃1	-9.87015
▁added	-9.8709
▁counting	-9.87098
▁⃗k	-9.87199
▁ωα	-9.87218
▁80	-9.87233
▁factors	-9.87303
▁vanishing	-9.87452
▁showed	-9.87459
▁operators	-9.87746
▁Klein	-9.87865
utting	-9.87918
▁moves	-9.87973
▁8.	-9.88145
▁gets	-9.88397
ach	-9.88415
▁Spaces	-9.88487
ever	-9.88642
▁generate	-9.88776
▁allow	-9.89086
▁→−	-9.89089
▁μσ	-9.89172
▁signal	-9.89273
▁Re	-9.8943
▁62	-9.89537
▁travel	-9.89568
1)2	-9.89898
▁assume	-9.89987
▁fast	-9.90064
▁Finally	-9.90111
▁decay	-9.90111
▁differentiation	-9.90111
▁summed	-9.90112
▁message	-9.90115
▁stationary	-9.90118
▁Define	-9.90121
▁correspondence	-9.90122
▁insist	-9.90126
▁dust	-9.90127
▁shape	-9.90134
▁primeval	-9.90134
▁45◦	-9.90135
▁proof	-9.90141
▁inertial	-9.90153
▁characterized	-9.90192
▁Smatter	-9.90213
ical	-9.90215
▁treated	-9.9024
▁effectively	-9.90347
▁paths	-9.90431
(4)(	-9.90486
ei	-9.9054
▁followed	-9.90557
▁quarks	-9.90645
▁send	-9.90745
▁gra	-9.9087
me	-9.90961
ol	-9.91127
▁tion	-9.91213
(4	-9.91308
▁Hilbert	-9.91326
▁30	-9.91522
▁dot	-9.91648
▁simpler	-9.91694
9;	-9.91797
▁atoms	-9.91827
▁ei	-9.92096
▁orbits	-9.92106
▁historical	-9.92228
▁air	-9.92374
▁invoke	-9.92414
▁(2),	-9.92426
▁geometric	-9.9246
▁formed	-9.92626
▁(1),	-9.92908
▁29	-9.9298
ner	-9.93077
′)2	-9.93298
▁cube	-9.93329
▁≥	-9.93503
▁full	-9.93666
▁worth	-9.93679
▁super	-9.93682
‡	-9.93682
▁Cosmology	-9.93682
▁Solution	-9.93682
▁accelerating	-9.93682
▁double	-9.93682
▁identify	-9.93682
▁language	-9.93682
▁specified	-9.93682
▁velocities	-9.93682
▁Under	-9.93682
▁bulk	-9.93682
▁explanation	-9.93683
▁referred	-9.93683
▁modern	-9.93706
▁Eddington	-9.93706
▁return	-9.93711
▁located	-9.93714
▁review	-9.93738
▁partial	-9.93751
▁arXiv	-9.93754
▁lab	-9.93758
▁whole	-9.93783
▁jump	-9.9384
▁simplifies	-9.93843
▁won	-9.9386
▁obviously	-9.94023
▁required	-9.94023
▁rid	-9.94115
▁asked	-9.94121
▁carrying	-9.9415
▁person	-9.94194
ea	-9.94364
ber	-9.94389
ick	-9.94423
ie	-9.94502
ot	-9.94577
▁1+	-9.94661
ably	-9.94673
}	-9.94723
▁noted	-9.94753
▁̈a	-9.95018
act	-9.95032
ish	-9.95044
ance	-9.95142
▁exists	-9.95172
κκ	-9.95225
▁(3),	-9.95399
▁grow	-9.95544
▁−(∂	-9.95716
▁2∂	-9.96042
ik	-9.96115
▁involve	-9.96202
▁books	-9.96256
▁̃ω	-9.96316
▁neutron	-9.9639
▁boost	-9.96399
▁stay	-9.96411
▁arithmetic	-9.96562
▁Se	-9.96718
called	-9.96882
▁diagrams	-9.96922
▁regions	-9.96959
since	-9.96971
▁impose	-9.97042
▁du	-9.97071
but	-9.971
▁act	-9.97136
▁tS	-9.97157
▁claim	-9.97189
▁theorems	-9.97254
▁previous	-9.97262
▁nonvanishing	-9.97386
▁parametrization	-9.97386
▁phase	-9.97386
▁subscript	-9.97386
▁temporal	-9.97386
▁alert	-9.97386
▁train	-9.97386
▁otherwise	-9.97387
▁oscillator	-9.97388
▁Princeton	-9.97389
lic	-9.97394
▁unification	-9.97395
▁Calculate	-9.97397
▁shortest	-9.97424
▁barn	-9.97433
ically	-9.97442
▁exponentially	-9.9746
▁et	-9.9749
▁SEH	-9.97505
ill	-9.97816
τμ	-9.97933
▁Any	-9.98094
▁66	-9.98216
▁universes	-9.98231
▁ranges	-9.98252
ig	-9.98483
▁within	-9.98599
▁translate	-9.98639
μφ	-9.98817
▁calculated	-9.98934
▁era	-9.99171
31	-9.99535
pp	-9.99685
ijk	-9.99727
▁32	-9.99797
2),	-9.99846
▁generalize	-9.99938
▁24	-10.003
▁spinor	-10.0032
▁constraint	-10.0033
lly	-10.0038
▁inter	-10.0053
XM	-10.0067
▁2:	-10.008
▁puzzle	-10.0089
▁33	-10.0093
▁direct	-10.0094
▁connect	-10.0102
▁exploit	-10.0103
▁difficult	-10.0104
▁+1	-10.0106
king	-10.0107
▁Fourier	-10.0123
▁flux	-10.0123
▁membrane	-10.0123
▁ourselves	-10.0123
▁plot	-10.0123
▁unprimed	-10.0123
▁"	-10.0123
▁among	-10.0123
▁prologue	-10.0123
▁conclusion	-10.0123
figure	-10.0124
lected	-10.0124
▁experimentalist	-10.0124
▁detector	-10.0125
▁Think	-10.0126
▁phenomenon	-10.0127
▁Laplace	-10.0128
▁quickly	-10.0133
▁dependent	-10.0135
tS	-10.0137
old	-10.0138
▁suppressed	-10.0141
▁desired	-10.0143
▁45	-10.0144
▁promoted	-10.0151
▁notational	-10.0162
▁noticed	-10.0165
▁39	-10.0173
▁speaking	-10.0184
▁̃r	-10.0208
▁→∞	-10.0237
ary	-10.0241
▁interchange	-10.0242
▁seems	-10.0245
▁9.	-10.0251
▁sets	-10.0264
▁coefficients	-10.0272
▁details	-10.0273
▁squared	-10.0296
▁stat	-10.0311
▁worldlines	-10.0321
▁Be	-10.0325
ful	-10.0343
vectors	-10.0344
ade	-10.0353
▁br	-10.0357
▁happen	-10.0373
▁car	-10.0374
▁relations	-10.039
νρ	-10.0406
▁≃−	-10.0414
▁fluctuation	-10.0429
▁63	-10.0451
▁en	-10.0459
▁observe	-10.0473
specific	-10.048
What	-10.0481
▁compute	-10.0496
▁center	-10.0504
▁extreme	-10.0511
▁skip	-10.0511
▁precise	-10.0511
▁Remarkabl	-10.0523
▁embedded	-10.0523
▁energies	-10.0523
▁floor	-10.0523
▁knock	-10.0523
▁practice	-10.0523
▁self	-10.0523
▁terminology	-10.0523
▁wrong	-10.0523
▁⃗t	-10.0523
▁additive	-10.0523
▁topology	-10.0523
▁Hamiltonian	-10.0523
▁property	-10.0523
▁nature	-10.0523
▁impact	-10.0524
▁knew	-10.0524
▁perihelion	-10.0524
▁(31)	-10.0525
▁inflationary	-10.0525
▁(35)	-10.0525
▁(33)	-10.0526
▁wish	-10.0527
▁John	-10.0528
▁nuclear	-10.0528
▁Compare	-10.0535
▁trouble	-10.054
▁distinguished	-10.0541
▁type	-10.055
If	-10.0557
▁bring	-10.0557
▁55	-10.0569
▁containing	-10.0576
▁remains	-10.0582
AB	-10.0584
▁degrees	-10.0586
▁forward	-10.0586
▁express	-10.0589
▁leptons	-10.0594
▁AdSd	-10.0601
▁ends	-10.0614
▁keeping	-10.0633
(3)(	-10.0649
−1,	-10.0651
5)	-10.0666
δρ	-10.0688
ard	-10.0729
σλ	-10.0731
▁computation	-10.0741
0)2	-10.0749
no	-10.0752
7)	-10.0759
▁ex	-10.0776
▁co	-10.0777
▁3:	-10.079
▁working	-10.0799
▁require	-10.0809
▁rotate	-10.0838
▁face	-10.0843
▁εμ	-10.0877
du	-10.0879
Einstein	-10.0897
▁watch	-10.0905
▁multiply	-10.0907
▁−2)	-10.091
▁range	-10.0929
▁suppress	-10.0929
▁inflation	-10.0939
ious	-10.094
▁Dimensions	-10.094
▁Kronecker	-10.094
▁carried	-10.094
▁irrelevant	-10.094
▁maximum	-10.094
▁nucleosynthesis	-10.094
▁convert	-10.094
▁bunch	-10.094
▁Use	-10.0941
▁Pythagoras	-10.0942
▁fancy	-10.0943
▁governed	-10.0943
▁measuring	-10.0943
▁traceless	-10.0948
▁(32)	-10.0957
▁coupled	-10.097
▁thermodynamics	-10.0976
▁⃗r	-10.0976
▁Sch	-10.0977
ice	-10.0977
▁85	-10.0983
▁gt	-10.0987
▁emphasized	-10.0992
such	-10.0993
As	-10.0999
mn	-10.1003
▁meaning	-10.1036
▁17	-10.104
▁26	-10.1062
▁(1).	-10.1066
ease	-10.1067
▁war	-10.1075
▁offer	-10.1098
▁manifolds	-10.1128
▁days	-10.1132
uch	-10.1139
▁dT	-10.1141
▁directions	-10.115
▁defines	-10.1152
▁protons	-10.1158
▁poles	-10.1183
▁explain	-10.1219
ccording	-10.1238
▁strange	-10.1263
▁occur	-10.1276
▁193	-10.1279
▁combinations	-10.1304
time	-10.1314
▁Un	-10.1325
▁ελ	-10.1327
free	-10.1332
Here	-10.1332
▁parameters	-10.1356
▁distinguish	-10.1357
▁amazing	-10.1362
▁essential	-10.1366
▁Euclid	-10.1375
▁absence	-10.1375
▁circular	-10.1375
▁cylinder	-10.1375
▁intuition	-10.1375
▁peculiar	-10.1375
▁regime	-10.1375
▁reversal	-10.1375
▁strategy	-10.1375
▁vertex	-10.1375
▁clever	-10.1375
▁wait	-10.1375
▁odd	-10.1375
▁necessary	-10.1375
▁favor	-10.1375
▁beginning	-10.1375
▁prediction	-10.1376
▁agreement	-10.1376
▁beam	-10.1377
▁contraction	-10.1377
CFT	-10.1377
▁stable	-10.1377
▁taught	-10.1377
▁lose	-10.1377
▁condensed	-10.1378
▁device	-10.1379
▁suitable	-10.1381
▁chosen	-10.1383
▁conceptually	-10.1384
▁meet	-10.1384
▁simplest	-10.1385
▁fear	-10.1385
▁coset	-10.1389
▁drive	-10.1389
▁ether	-10.1393
▁difficulty	-10.1396
▁accelerated	-10.1398
▁formally	-10.1403
▁passing	-10.1406
▁̇r	-10.1419
(2)	-10.1449
▁36	-10.1463
00(	-10.1471
dv	-10.1477
▁fix	-10.1482
▁ways	-10.151
▁measured	-10.1511
▁47	-10.1534
▁depending	-10.1544
▁δμ	-10.156
τν	-10.1578
▁reasons	-10.1584
▁curl	-10.1588
▁Form	-10.1642
▁tan	-10.165
▁Mean	-10.1653
gR	-10.1664
▁48	-10.1673
II	-10.1674
▁σρ	-10.1681
▁structures	-10.1683
▁treatment	-10.1727
▁edge	-10.173
▁measurement	-10.1733
–6	-10.1743
▁pass	-10.1775
Recall	-10.1787
▁master	-10.179
▁ruler	-10.1797
▁raise	-10.1797
.10	-10.18
▁argue	-10.1802
ense	-10.1808
▁global	-10.1816
learly	-10.1823
▁experimental	-10.1825
▁relate	-10.1826
▁predict	-10.1828
▁Back	-10.1829
▁Descartes	-10.1829
▁Differentiating	-10.1829
▁Greek	-10.1829
▁Verify	-10.1829
▁ambient	-10.1829
▁completion	-10.1829
▁decoupling	-10.1829
▁deficit	-10.1829
▁evolution	-10.1829
▁integrand	-10.1829
▁nucleus	-10.1829
▁procedure	-10.1829
▁search	-10.1829
▁signature	-10.1829
▁subtract	-10.1829
▁verified	-10.1829
▁⇒	-10.1829
▁option	-10.1829
▁critical	-10.1829
▁Denote	-10.183
▁Find	-10.183
▁Cambridge	-10.183
▁ultraviolet	-10.183
▁quantization	-10.1833
▁ago	-10.1833
▁Setting	-10.1833
▁unless	-10.1834
▁purely	-10.1834
▁reaches	-10.1834
▁deeper	-10.1836
▁mess	-10.1837
▁developed	-10.1838
▁imply	-10.1838
▁attractive	-10.1839
▁against	-10.184
▁disk	-10.184
▁road	-10.184
▁typically	-10.1842
▁sent	-10.1844
▁interested	-10.1845
▁pick	-10.1847
▁late	-10.1852
▁Yes	-10.1852
▁trivially	-10.1855
▁Rev	-10.1857
▁heat	-10.1864
ative	-10.1877
ge	-10.1878
▁contracting	-10.188
▁dxi	-10.1889
▁forever	-10.1893
▁50	-10.1898
▁er	-10.1899
▁touch	-10.1902
▁trying	-10.1917
▁dSd	-10.1923
▁expressions	-10.1948
.8	-10.1961
▁cause	-10.1975
▁Rij	-10.1984
istical	-10.1987
▁−1.	-10.2009
λμ	-10.2012
▁showing	-10.2019
▁expands	-10.2022
▁pre	-10.2032
pt	-10.2033
▁Or	-10.2059
σν	-10.2097
.10.	-10.2097
▁balls	-10.2101
▁pro	-10.2107
mer	-10.2131
▁ultimate	-10.2144
det	-10.2144
▁Toy	-10.2145
▁produce	-10.217
▁couple	-10.2171
▁age	-10.2188
▁baryon	-10.22
▁assumption	-10.2205
▁human	-10.2206
▁year	-10.2244
▁→0,	-10.226
recall	-10.2263
▁promote	-10.2271
▁believe	-10.2272
▁disappear	-10.2285
▁quick	-10.2288
low	-10.2291
▁increasing	-10.2293
▁enormous	-10.2293
▁elegant	-10.2296
▁ratio	-10.2303
▁Comparing	-10.2305
▁Lecture	-10.2305
▁alluded	-10.2305
▁appendices	-10.2305
▁average	-10.2305
▁behind	-10.2305
▁brute	-10.2305
▁helium	-10.2305
▁homogeneous	-10.2305
▁integrating	-10.2305
▁introducing	-10.2305
▁minimize	-10.2305
▁nonlocal	-10.2305
▁propagate	-10.2305
▁responsible	-10.2305
▁scenario	-10.2305
▁track	-10.2305
▁———	-10.2305
▁beautiful	-10.2305
▁error	-10.2305
▁twice	-10.2305
▁solid	-10.2305
▁demand	-10.2305
▁singularities	-10.2306
▁corner	-10.2306
▁creation	-10.2306
▁opinion	-10.2306
▁stone	-10.2306
▁(34)	-10.2306
▁powerful	-10.2307
▁Rotat	-10.2307
▁suddenly	-10.2307
▁restriction	-10.2308
▁solar	-10.2309
▁dDx	-10.231
▁perpendicular	-10.2311
▁downward	-10.2311
▁somebody	-10.2312
▁faster	-10.2312
IX	-10.2315
▁dropped	-10.2317
▁1915	-10.2317
▁published	-10.2318
▁Dop	-10.2323
▁approaches	-10.2324
▁plugging	-10.2333
▁expressed	-10.2343
▁Dr	-10.2346
▁round	-10.2347
▁pion	-10.2355
be	-10.2357
▁Change	-10.2364
▁presented	-10.2378
▁linearly	-10.2383
▁ple	-10.2384
▁UV	-10.2399
▁RT	-10.2408
▁ha	-10.2428
▁sea	-10.2431
▁11	-10.2452
)]	-10.2453
▁features	-10.2492
▁texts	-10.2499
▁lengths	-10.253
▁195	-10.2542
4)	-10.2561
▁491	-10.2577
rea	-10.2589
▁10.	-10.2602
ily	-10.2606
▁compact	-10.265
▁indicate	-10.2675
Xd	-10.2675
tial	-10.2691
25;	-10.2693
dz	-10.2693
▁–	-10.2695
ove	-10.2722
.8.	-10.2737
▁11.	-10.2743
▁treat	-10.2751
55;	-10.2759
⃗r	-10.2761
Lagrange	-10.2762
brane	-10.2763
momentum	-10.2763
sphere	-10.2763
▁friends	-10.2786
▁bo	-10.2789
forms	-10.2799
▁schematic	-10.2804
▁twin	-10.2805
Walker	-10.2805
▁Tensors	-10.2805
▁Thought	-10.2805
▁Unruh	-10.2805
▁built	-10.2805
▁easier	-10.2805
▁emphasizing	-10.2805
▁himself	-10.2805
▁hindsight	-10.2805
▁huge	-10.2805
▁importance	-10.2805
▁phenomena	-10.2805
▁thermal	-10.2805
▁bowl	-10.2805
▁(36)	-10.2805
▁Reca	-10.2806
▁Later	-10.2806
▁reflection	-10.2806
▁reference	-10.2806
▁torus	-10.2806
▁galaxies	-10.2807
▁emission	-10.2807
pler	-10.281
▁excited	-10.281
▁Vicious	-10.2811
▁governing	-10.2811
▁∼1/	-10.2812
▁surprisingly	-10.2813
▁o	-10.2814
▁(2).	-10.2814
▁Look	-10.2815
▁carefully	-10.2816
▁Why	-10.2818
▁Particles	-10.2818
▁extended	-10.282
▁seeing	-10.282
MP	-10.282
▁information	-10.2824
▁Leibniz	-10.2824
−+	-10.2827
▁nicely	-10.2829
▁≥0	-10.2831
▁mathematically	-10.2838
▁subsequent	-10.2839
▁detailed	-10.2843
▁dxdy	-10.2852
▁presently	-10.2854
▁naive	-10.2854
▁properly	-10.2862
–3	-10.2866
▁decreases	-10.2875
man	-10.2877
▁door	-10.2882
▁appeared	-10.2883
▁regarding	-10.2886
▁explore	-10.2933
line	-10.2945
ations	-10.2948
gij	-10.2965
/3	-10.2979
)2.	-10.3021
▁196	-10.3026
▁sources	-10.3033
▁̃x	-10.304
▁40	-10.3051
▁ant	-10.3067
▁≡1	-10.3095
It	-10.3134
▁Md	-10.314
▁got	-10.315
90;	-10.3156
led	-10.3161
▁falls	-10.318
ctually	-10.3196
▁traditional	-10.3228
▁questions	-10.3232
▁sheet	-10.3232
▁professor	-10.3237
▁68	-10.3253
−=	-10.3284
while	-10.3289
⃗u	-10.3289
▁logical	-10.3322
▁singular	-10.333
▁project	-10.333
▁technical	-10.3332
▁Noether	-10.3332
▁Reissner	-10.3332
▁Simply	-10.3332
▁cloud	-10.3332
▁estimate	-10.3332
▁nuclei	-10.3332
▁orthogonal	-10.3332
▁orthonormal	-10.3332
▁rewrite	-10.3332
▁straightforward	-10.3332
▁vertices	-10.3332
▁⃗y	-10.3332
▁radar	-10.3332
▁ahead	-10.3332
▁Clos	-10.3332
bility	-10.3332
▁vast	-10.3332
▁GeV	-10.3332
▁entries	-10.3332
▁hidden	-10.3335
▁antisymmetry	-10.3336
▁Pauli	-10.3336
▁ship	-10.3338
▁antimatter	-10.3338
▁rich	-10.3345
▁εαβ	-10.3347
III	-10.3347
▁topics	-10.335
▁surely	-10.3355
▁happened	-10.3357
▁27	-10.3362
▁175	-10.3363
▁divided	-10.3364
▁198	-10.3371
▁table	-10.3371
▁tend	-10.3372
▁apparently	-10.3386
▁extract	-10.3393
▁38	-10.3394
▁+∞	-10.3397
▁corrections	-10.3404
▁inversion	-10.3422
▁dealing	-10.3434
happily	-10.3435
▁sized	-10.3455
▁comp	-10.3459
(3	-10.3477
igher	-10.3478
▁pieces	-10.354
▁XM	-10.3552
▁Lett	-10.3564
lternatively	-10.3591
▁scalars	-10.3612
Xa	-10.3634
δμ	-10.3656
/(2	-10.3659
gt	-10.3673
one	-10.3701
▁̃μ	-10.3714
▁charges	-10.3717
▁reduce	-10.3758
fully	-10.3768
▁suggest	-10.3769
–5	-10.3782
▁differ	-10.3786
▁mite	-10.3789
▁lepton	-10.379
▁nor	-10.3799
Nord	-10.3844
⟨	-10.3844
light	-10.3846
known	-10.3849
▁summarize	-10.3853
▁divide	-10.3857
▁explicit	-10.3876
▁recent	-10.3876
▁intuitive	-10.3876
▁21	-10.3885
▁distinct	-10.3886
▁Fermat	-10.3887
▁Interest	-10.3887
▁Prologue	-10.3887
▁Quickly	-10.3887
▁boundaries	-10.3887
▁choosing	-10.3887
▁colleague	-10.3887
▁cubic	-10.3887
▁cylindrical	-10.3887
▁differentiating	-10.3887
▁essence	-10.3887
▁hydrogen	-10.3887
▁infrared	-10.3887
▁motivation	-10.3887
▁paragraph	-10.3887
▁research	-10.3887
▁spirit	-10.3887
▁trajectory	-10.3887
▁echo	-10.3887
▁extent	-10.3887
▁laser	-10.3887
▁room	-10.3887
▁Fearful	-10.3887
▁String	-10.3887
▁electrodynamics	-10.3888
▁save	-10.3888
▁rocket	-10.3888
▁Rotation	-10.3889
▁post	-10.3889
▁development	-10.389
⟩=	-10.3891
▁making	-10.3896
▁Deser	-10.3896
▁processes	-10.3898
▁neighboring	-10.3899
▁upward	-10.3902
▁movement	-10.3903
▁ηαβ	-10.3909
▁similarly	-10.3915
▁tick	-10.3916
VI	-10.3916
▁coming	-10.3917
▁199	-10.3917
▁suffices	-10.3924
▁normally	-10.393
ient	-10.393
▁goal	-10.3933
▁exp	-10.3937
▁cyclic	-10.3947
▁named	-10.396
▁proved	-10.3983
▁mites	-10.3987
ular	-10.3988
▁discussing	-10.399
actic	-10.4001
▁693	-10.4006
▁pointed	-10.4016
▁∼∂	-10.4026
▁bu	-10.404
▁situations	-10.4079
▁adding	-10.4099
cal	-10.4102
σμ	-10.4107
ni	-10.4126
▁83	-10.4167
uc	-10.4178
▁amplitudes	-10.4183
▁76	-10.4223
▁operation	-10.4227
−4	-10.4241
19;	-10.4244
▁εμν	-10.4255
▁al	-10.4265
yi	-10.4275
▁obtaining	-10.4284
∞	-10.4288
way	-10.4296
ki	-10.4298
▁2(∂	-10.4305
ang	-10.4307
.9	-10.4329
▁Fields	-10.433
▁dp	-10.4339
▁46	-10.4345
ering	-10.4347
▁ideal	-10.4349
▁fail	-10.4355
▁→0	-10.4363
▁Lo	-10.4374
▁commutator	-10.4376
mo	-10.4381
ελ	-10.4383
ov	-10.4402
ize	-10.4402
▁variations	-10.4413
not	-10.4414
▁knowing	-10.4414
▁assum	-10.4419
∼	-10.4429
horizon	-10.4433
namely	-10.4436
▁100	-10.4436
MN	-10.4437
▁pa	-10.4441
bel	-10.4445
where	-10.4453
(−	-10.4459
▁56	-10.4461
Jz	-10.4462
▁exponential	-10.4464
▁careful	-10.4465
ovariant	-10.4469
▁δφ	-10.4469
▁litera	-10.4475
▁Multiply	-10.4475
▁George	-10.4476
▁Mercury	-10.4476
▁Nasty	-10.4476
▁Rindler	-10.4476
▁System	-10.4476
▁advantage	-10.4476
▁attempt	-10.4476
▁dummy	-10.4476
▁effort	-10.4476
▁elastic	-10.4476
▁evidence	-10.4476
▁glass	-10.4476
▁scope	-10.4476
▁smart	-10.4476
▁stress	-10.4476
▁⃗J	-10.4476
▁Gibbons	-10.4476
▁gotten	-10.4476
▁pulse	-10.4476
▁truly	-10.4476
▁abuse	-10.4476
▁render	-10.4476
▁unfamiliar	-10.4476
▁sentence	-10.4476
▁wavelength	-10.4476
▁remarkably	-10.4477
▁Possible	-10.4477
▁available	-10.4477
▁projection	-10.4477
▁Bekenstein	-10.4477
▁endnote	-10.4477
dq	-10.4479
▁longitude	-10.448
▁uniquely	-10.4482
▁sight	-10.4484
▁minute	-10.4484
▁Book	-10.4485
▁788	-10.4488
▁fel	-10.4488
75;	-10.4489
▁anticipated	-10.4495
▁across	-10.4497
▁̈R	-10.45
▁surprised	-10.4504
ized	-10.4505
▁̇φ	-10.4507
▁omit	-10.4508
▁Droste	-10.4511
▁quantized	-10.4513
▁commonly	-10.4515
▁computer	-10.4516
▁remarked	-10.4521
▁cap	-10.453
▁imposed	-10.4531
▁behave	-10.4534
▁emerges	-10.4545
=0	-10.4546
▁included	-10.4547
so	-10.4558
▁̃e	-10.4566
To	-10.4573
▁∞.	-10.458
▁ξσ	-10.4584
▁although	-10.4591
▁occurs	-10.4612
▁considered	-10.4621
▁boosts	-10.4636
▁stays	-10.4636
0(	-10.4638
ωσ	-10.4648
▁σλ	-10.4657
pl	-10.4669
wi	-10.467
▁transformed	-10.4678
▁Mc	-10.4703
▁197	-10.4779
▁cha	-10.48
▁(11).	-10.4819
▁clocks	-10.4821
uck	-10.4826
▁top	-10.4829
xI	-10.4885
▁fixe	-10.4888
▁com	-10.4906
▁finding	-10.4916
dT	-10.4926
▁hit	-10.4939
using	-10.4958
▁AB	-10.4959
,0,	-10.4972
/(1	-10.4982
▁wonder	-10.4986
▁δμν	-10.4995
▁purpose	-10.5001
▁degree	-10.5003
▁quark	-10.5003
com	-10.5007
▁Xi	-10.5015
▁⃗∇)	-10.5024
▁bend	-10.5027
▁sp	-10.503
56	-10.5036
doomed	-10.5041
▁(200	-10.5049
∗)	-10.5049
{	-10.5055
came	-10.5058
Universe	-10.5058
space	-10.5058
Hawking	-10.5058
▁rush	-10.5068
▁fluids	-10.5073
▁exact	-10.509
▁delay	-10.509
▁typical	-10.5093
argon	-10.5097
▁intersect	-10.5099
▁Follow	-10.51
▁Causal	-10.5101
▁Dyson	-10.5101
▁Experimentalist	-10.5101
▁German	-10.5101
▁Science	-10.5101
▁Special	-10.5101
▁discrete	-10.5101
▁dominant	-10.5101
▁exchange	-10.5101
▁hyperboloid	-10.5101
▁identified	-10.5101
▁illuminating	-10.5101
▁indicating	-10.5101
▁latter	-10.5101
▁loop	-10.5101
▁myself	-10.5101
▁neither	-10.5101
▁propagating	-10.5101
▁propagation	-10.5101
▁rescaling	-10.5101
▁⃗b	-10.5101
▁control	-10.5101
▁fluctuating	-10.5101
▁Words	-10.5101
▁Varying	-10.5101
▁peak	-10.5101
oyal	-10.5101
▁substitution	-10.5101
▁Anti	-10.5101
▁Transformation	-10.5101
▁Guy	-10.5101
▁link	-10.5101
▁sketch	-10.5101
▁analytically	-10.5102
▁modified	-10.5102
▁People	-10.5102
▁mechanism	-10.5102
▁schematically	-10.5102
▁441	-10.5102
▁galaxy	-10.5103
▁regardless	-10.5103
▁multiplied	-10.5104
▁remarkable	-10.5104
▁Remember	-10.5105
right	-10.5105
▁Physically	-10.5107
▁atomic	-10.5107
▁enclosed	-10.5107
▁parametrized	-10.5108
▁container	-10.5113
▁712	-10.5113
▁564	-10.5115
1(	-10.5115
▁fine	-10.5116
▁flatness	-10.5119
▁extremely	-10.512
▁̇θ	-10.5121
▁amax	-10.5121
▁suggested	-10.5122
▁induced	-10.5123
▁instantly	-10.5126
▁hot	-10.5129
ttp	-10.5133
▁repeatedly	-10.5134
▁̃F	-10.5138
▁Live	-10.5148
45;	-10.5152
▁expanded	-10.5152
▁reproduce	-10.5153
▁imp	-10.5169
IV	-10.5176
▁transported	-10.5177
▁importantly	-10.5185
▁playing	-10.5191
▁Con	-10.5195
▁tock	-10.5197
▁stands	-10.5201
▁reasoning	-10.5202
held	-10.521
non	-10.5229
▁measurements	-10.5241
▁Set	-10.5248
▁⃗∇.	-10.5248
−1.	-10.5252
▁faces	-10.5252
▁αβ	-10.5268
▁Le	-10.5292
▁577	-10.5302
▁collapses	-10.5304
▁observations	-10.5311
▁(6).	-10.5314
ure	-10.5326
gal	-10.5336
ξμ	-10.5337
▁names	-10.5338
pon	-10.5339
▁ignore	-10.536
▁SE	-10.5363
istorically	-10.5368
▁51	-10.5381
▁69	-10.5415
▁po	-10.5417
69	-10.542
▁|0	-10.5453
▁13.	-10.5474
▁mo	-10.5508
▁forced	-10.5514
▁differentials	-10.5524
εμν	-10.5531
long	-10.5553
▁closes	-10.5569
▁2).	-10.5573
▁choices	-10.5576
▁kinds	-10.5576
▁radiate	-10.5584
▁νσ	-10.5605
otion	-10.563
▁break	-10.5634
▁remain	-10.5635
kj	-10.5636
▁31	-10.564
▁hint	-10.5664
▁consequence	-10.5667
▁author	-10.5668
▁personal	-10.5671
▁191	-10.5697
▁interest	-10.5702
ani	-10.5703
▁→1	-10.5705
▁extend	-10.5715
▁separate	-10.5721
velocity	-10.5725
GT	-10.5726
▁(7),	-10.5728
our	-10.573
▁deduce	-10.5731
+1)	-10.5732
▁desire	-10.5733
▁interact	-10.5733
▁match	-10.5739
▁detect	-10.5742
▁reveal	-10.5748
ould	-10.5754
▁serious	-10.5755
▁gravitation	-10.5756
olar	-10.5757
arge	-10.5758
nvariance	-10.5762
ecause	-10.5762
sinh	-10.5764
▁heuristic	-10.5766
▁ten	-10.5767
▁Discover	-10.5767
▁Albert	-10.5767
▁Cauchy	-10.5767
▁Friedmann	-10.5767
▁Geodesic	-10.5767
▁Momentum	-10.5767
▁Smart	-10.5767
▁commutation	-10.5767
▁dilaton	-10.5767
▁expedition	-10.5767
▁individual	-10.5767
▁integer	-10.5767
▁magnitude	-10.5767
▁parentheses	-10.5767
▁sharp	-10.5767
▁simplicity	-10.5767
▁simplify	-10.5767
▁strictly	-10.5767
▁̈odinger	-10.5767
▁pedantic	-10.5767
▁honey	-10.5767
▁versa	-10.5767
▁1905	-10.5767
▁footnote	-10.5767
▁observables	-10.5767
▁spring	-10.5767
▁task	-10.5767
▁726	-10.5767
▁Unfortunately	-10.5768
▁alone	-10.5768
▁candle	-10.5768
▁loss	-10.5768
▁violation	-10.5768
▁Keep	-10.5768
▁649	-10.5768
▁eternal	-10.5768
://	-10.5769
▁thanks	-10.5769
▁758	-10.5769
▁negligible	-10.577
▁multiplier	-10.577
▁dropping	-10.577
ook	-10.577
▁magic	-10.5771
▁naturalness	-10.5771
▁practically	-10.5772
▁American	-10.5772
▁diffeomorphism	-10.5772
▁sophisticated	-10.5773
▁similarity	-10.5773
▁̇β	-10.5773
▁tube	-10.5774
▁773	-10.5775
▁Mos	-10.5776
▁backward	-10.5781
▁cosmologists	-10.5791
ρλ	-10.5797
▁Take	-10.58
▁rushing	-10.5802
▁dual	-10.5805
▁big	-10.5816
▁produced	-10.5817
▁strongly	-10.5821
▁played	-10.5824
▁puzzled	-10.583
.11.	-10.5831
▁sit	-10.5835
▁interiors	-10.5846
▁sticks	-10.5854
▁cool	-10.5858
▁supposed	-10.586
▁breaks	-10.5868
▁integrated	-10.5877
are	-10.5877
Of	-10.5884
▁TH	-10.5889
▁785	-10.5899
▁771	-10.591
▁learning	-10.5911
▁causes	-10.5913
▁si	-10.5921
▁∼10	-10.5931
▁∼(	-10.5938
▁tR	-10.594
ale	-10.5941
▁constraints	-10.5944
▁200	-10.595
▁generates	-10.5965
▁former	-10.5966
53;	-10.5977
▁locations	-10.5979
▁outer	-10.6
▁bounce	-10.6001
rit	-10.6009
▁cont	-10.605
▁eV	-10.606
▁wants	-10.6061
▁≡−	-10.6064
/2)	-10.6099
XN	-10.6104
▁likely	-10.6112
▁arc	-10.6145
/2,	-10.6189
▁changed	-10.6191
▁ter	-10.6195
flat	-10.6195
▁exercises	-10.6209
81	-10.6252
▁differences	-10.6256
▁−1)(	-10.6278
▁reads	-10.6288
ound	-10.6298
(4)	-10.6304
co	-10.6316
xj	-10.6343
lthough	-10.6351
▁ur	-10.6354
oll	-10.6368
▁mathematician	-10.6382
▁theorist	-10.6385
▁correction	-10.6389
▁son	-10.6393
standing	-10.6405
?)	-10.6423
mple	-10.6428
▁via	-10.6428
▁37	-10.6435
Droste	-10.6438
diagonal	-10.6439
χ	-10.6439
How	-10.6444
▁papers	-10.6446
▁surprise	-10.6447
▁stand	-10.6447
But	-10.6452
▁quantize	-10.6453
▁electro	-10.6466
▁conceptual	-10.6471
▁slight	-10.6476
nfinitesimal	-10.6476
▁Gravitation	-10.6478
▁collect	-10.648
▁fu	-10.648
▁Completion	-10.6481
▁English	-10.6481
▁Eventually	-10.6481
▁Laplacian	-10.6481
▁Mercator	-10.6481
▁Referring	-10.6481
▁accuracy	-10.6481
▁blunder	-10.6481
▁ceiling	-10.6481
▁collapsing	-10.6481
▁confusing	-10.6481
▁dividing	-10.6481
▁emergence	-10.6481
▁family	-10.6481
▁flavor	-10.6481
▁mirror	-10.6481
▁puzzling	-10.6481
▁surrounding	-10.6481
▁symmetries	-10.6481
▁Flowering	-10.6481
▁Matter	-10.6481
▁elapsed	-10.6481
▁leaving	-10.6481
▁movie	-10.6481
▁sufficient	-10.6481
▁trust	-10.6481
▁inherent	-10.6481
▁tidal	-10.6481
▁coincidence	-10.6482
▁electroweak	-10.6482
▁identities	-10.6482
▁water	-10.6482
▁death	-10.6482
▁rectangle	-10.6482
▁probe	-10.6482
▁street	-10.6483
▁implicitly	-10.6483
▁uniform	-10.6483
▁stereographic	-10.6483
▁today	-10.6483
▁tried	-10.6483
▁struggle	-10.6484
▁floating	-10.6485
▁affine	-10.6486
▁imaginary	-10.6487
▁tower	-10.6487
▁unlike	-10.6487
▁Rrr	-10.6488
▁bright	-10.6488
▁Max	-10.6489
▁Contracting	-10.649
most	-10.649
▁fourth	-10.6492
▁Expanding	-10.6493
▁mere	-10.6493
aid	-10.6493
▁separately	-10.6495
▁̇B	-10.6495
▁̃hij	-10.6496
▁science	-10.6496
▁Rather	-10.6496
▁concerned	-10.6496
εν	-10.6498
▁enormously	-10.65
▁rock	-10.65
▁interpreted	-10.6501
▁revealed	-10.6502
▁axes	-10.6503
▁advanced	-10.6503
▁restored	-10.6503
▁lesson	-10.6505
▁replac	-10.6505
▁sky	-10.6509
▁mastered	-10.6512
▁numerically	-10.6516
▁heart	-10.6516
log	-10.6516
▁centered	-10.6516
hose	-10.6521
–10	-10.6525
▁challenge	-10.6538
▁multiplying	-10.6539
▁illustrate	-10.6541
▁Nord	-10.6543
▁eyes	-10.6552
▁97	-10.6558
▁rmin	-10.6559
▁experienced	-10.6566
▁∝1/	-10.6572
▁polarizations	-10.6574
▁labels	-10.6574
▁decrease	-10.6575
▁infinitesimally	-10.6581
▁δρ	-10.6592
▁apart	-10.6593
▁(9),	-10.6596
▁purposes	-10.6597
▁Hin	-10.6601
▁Jz	-10.6605
▁786	-10.6606
37	-10.662
▁φφ	-10.6627
ρω	-10.6631
▁−∂2	-10.6636
−3	-10.6641
▁133	-10.6641
▁edges	-10.6642
ously	-10.6647
▁lc	-10.665
atch	-10.6653
▁generalizes	-10.6672
▁fire	-10.6682
end	-10.6685
▁−1)-	-10.6733
−)	-10.6746
▁tests	-10.6755
▁gr	-10.676
▁remarks	-10.6771
▁41	-10.6798
▁drops	-10.6801
▁discussions	-10.6801
▁eb	-10.6805
vice	-10.6806
▁(−1)	-10.6842
riving	-10.6917
▁roots	-10.6931
▁79	-10.6938
83;	-10.6939
▁101	-10.7082
68;	-10.7086
▁starts	-10.7091
].	-10.7095
▁vi	-10.7105
▁hands	-10.7118
▁stick	-10.712
▁label	-10.7135
▁period	-10.7136
▁58	-10.7138
▁gyroscope	-10.7149
▁segment	-10.7149
▁affect	-10.7149
▁polarization	-10.7152
aw	-10.7154
▁≡(	-10.7155
▁{	-10.7157
▁triumph	-10.7166
late	-10.7172
point	-10.7174
1...	-10.7178
▁trip	-10.7189
▁sub	-10.7198
%	-10.7205
×	-10.7208
Indeed	-10.7208
from	-10.7208
Newtonian	-10.7208
▁types	-10.7215
▁push	-10.7217
71;	-10.7218
▁Who	-10.7219
eb	-10.7219
▁absolute	-10.7238
▁surprising	-10.7239
▁maximal	-10.7239
tute	-10.7242
▁brief	-10.7243
onstant	-10.7244
evertheless	-10.7247
ssbau	-10.7251
▁California	-10.7251
▁Cosmological	-10.7251
▁Distance	-10.7251
▁Polchinski	-10.7251
▁Preface	-10.7251
▁Second	-10.7251
▁abstract	-10.7251
▁blue	-10.7251
▁brachistochrone	-10.7251
▁circumstances	-10.7251
▁contrary	-10.7251
▁displacement	-10.7251
▁edition	-10.7251
▁epoch	-10.7251
▁evaluating	-10.7251
▁extension	-10.7251
▁fifth	-10.7251
▁happy	-10.7251
▁hypersurface	-10.7251
▁infalling	-10.7251
▁isometries	-10.7251
▁phrase	-10.7251
▁proposal	-10.7251
▁renaming	-10.7251
▁striking	-10.7251
▁structural	-10.7251
▁summary	-10.7251
▁transpose	-10.7251
▁entities	-10.7251
▁Solve	-10.7251
▁benefit	-10.7251
▁memory	-10.7251
▁job	-10.7251
▁behold	-10.7251
▁sensible	-10.7251
▁Conformal	-10.7251
▁dragging	-10.7251
▁wild	-10.7251
▁Maximal	-10.7251
▁Radiation	-10.7251
▁Easy	-10.7251
▁Unification	-10.7251
▁(40)	-10.7251
▁analytic	-10.7251
▁please	-10.7252
▁lost	-10.7252
▁everybody	-10.7252
▁assertion	-10.7252
▁fascinating	-10.7252
▁influence	-10.7252
▁Effective	-10.7253
▁distinction	-10.7253
▁fraction	-10.7253
Rosen	-10.7253
▁definitely	-10.7253
▁⃗vN	-10.7255
▁Applied	-10.7256
▁plausible	-10.7257
▁721	-10.7257
▁pseudo	-10.726
▁ray	-10.7261
▁horizontal	-10.7262
▁invented	-10.7262
▁711	-10.7263
▁height	-10.7265
▁reality	-10.7268
▁warm	-10.7268
▁57	-10.7269
▁formulated	-10.7272
▁404	-10.7272
cited	-10.7273
▁celebrat	-10.7279
▁five	-10.7279
▁̇A	-10.728
5),	-10.7282
▁reasonable	-10.7283
▁681	-10.7285
▁receiver	-10.7288
▁pur	-10.7299
▁309	-10.7306
▁raised	-10.7311
▁163	-10.7317
▁14.	-10.732
▁hear	-10.732
▁768	-10.7323
▁≪1	-10.733
▁His	-10.7334
▁interpret	-10.7335
▁contributes	-10.7336
▁closer	-10.7337
)/(	-10.7339
▁row	-10.7343
ff	-10.7348
▁assumed	-10.7356
.6)	-10.736
▁cE	-10.736
ible	-10.7379
▁84	-10.739
▁acc	-10.7391
▁differs	-10.7392
▁637	-10.7397
▁se	-10.7407
▁humans	-10.7416
▁couples	-10.7417
▁557	-10.7417
91;	-10.7423
▁arguments	-10.7424
▁rulers	-10.7424
▁ξρ	-10.7456
▁acts	-10.7464
▁neutrons	-10.7465
ji	-10.7475
tain	-10.7479
▁principles	-10.7479
▁differently	-10.7481
version	-10.7481
her	-10.7491
pite	-10.752
▁triangles	-10.7523
▁292	-10.7524
▁onto	-10.7526
▁publish	-10.753
▁222	-10.753
▁81	-10.7568
▁rec	-10.7577
78;	-10.7592
▁⃗∇2	-10.7656
▁Unit	-10.7679
▁lie	-10.7752
rew	-10.7763
▁∼1	-10.7769
▁pe	-10.7774
▁met	-10.7809
▁equals	-10.7817
Ht	-10.7817
uv	-10.7836
2+	-10.7848
vari	-10.7851
dV	-10.7853
▁→∞.	-10.7863
▁cor	-10.7863
Nl	-10.7876
▁180	-10.7891
nty	-10.7892
▁md	-10.7893
▁sc	-10.791
34;	-10.7929
mc	-10.7932
)2(	-10.7939
.3).	-10.794
▁success	-10.7941
▁→0.	-10.7942
▁statements	-10.7945
ively	-10.7946
▁emerge	-10.7949
▁sa	-10.7974
▁interior	-10.7985
▁increase	-10.7987
▁dE	-10.7989
▁facts	-10.8
body	-10.8002
▁ut	-10.801
▁receive	-10.8021
▁Plug	-10.8024
Bf	-10.8032
component	-10.8042
▁appreciate	-10.8047
▁violate	-10.8047
∂0	-10.8059
▁Can	-10.806
▁New	-10.8066
▁throw	-10.8068
▁mark	-10.8071
gtt	-10.8076
▁chose	-10.8077
▁trans	-10.8078
tellar	-10.808
▁visit	-10.8084
▁abandon	-10.8084
▁conjugation	-10.8084
▁nonzero	-10.8084
▁782;	-10.8084
▁Metric	-10.8084
▁Oxford	-10.8084
▁Poisson	-10.8084
▁Theoretical	-10.8084
▁amazed	-10.8084
▁balance	-10.8084
▁bodies	-10.8084
▁bridge	-10.8084
▁contemporary	-10.8084
▁decomposition	-10.8084
▁determining	-10.8084
▁eclipse	-10.8084
▁exceed	-10.8084
▁gedanken	-10.8084
▁gradient	-10.8084
▁marble	-10.8084
▁nontrivial	-10.8084
▁possibilities	-10.8084
▁rapidly	-10.8084
▁switch	-10.8084
▁undergraduate	-10.8084
▁variety	-10.8084
▁⃗F	-10.8084
▁comparing	-10.8084
▁guide	-10.8084
▁trapped	-10.8084
▁distant	-10.8084
▁exert	-10.8084
▁Today	-10.8084
▁dream	-10.8084
▁History	-10.8084
▁manipulation	-10.8084
▁record	-10.8084
▁436	-10.8084
▁running	-10.8084
▁MTG	-10.8084
▁grasp	-10.8084
▁accordance	-10.8084
▁impression	-10.8084
▁failure	-10.8084
▁reaction	-10.8085
▁bottom	-10.8085
▁passage	-10.8085
▁everywhere	-10.8086
▁pretty	-10.8086
▁roll	-10.8086
▁positron	-10.8086
circ	-10.8086
▁428	-10.8086
▁bracket	-10.8087
▁449	-10.8087
▁Evaluate	-10.8088
▁promised	-10.8089
▁276	-10.8089
barely	-10.8089
▁Jordan	-10.809
▁henceforth	-10.809
▁hermitean	-10.809
celes	-10.809
▁identically	-10.8091
▁Scosmological	-10.8094
▁anywhere	-10.8095
thing	-10.8095
note	-10.8095
▁absolutely	-10.8097
▁adopt	-10.8097
▁Rtt	-10.8099
▁787;	-10.81
▁emitted	-10.81
▁stretched	-10.81
▁Hall	-10.81
▁yi	-10.8101
▁soft	-10.8101
▁established	-10.8105
▁compactly	-10.8105
▁Integrating	-10.8106
▁decades	-10.8106
▁770;	-10.8107
▁disc	-10.8108
▁continuous	-10.8111
▁554	-10.8113
▁179	-10.8113
▁applied	-10.8115
▁361	-10.8116
▁700	-10.8125
▁hyperbolas	-10.8132
▁620	-10.8134
▁guessed	-10.8134
arly	-10.8135
▁oppositely	-10.8136
▁summarized	-10.8138
▁yields	-10.8141
▁art	-10.8148
▁ride	-10.815
xixj	-10.8152
bit	-10.8154
▁μσλ	-10.8156
▁gluons	-10.8159
▁formal	-10.8161
▁479	-10.8164
▁approximate	-10.8166
▁largely	-10.8181
▁715	-10.8183
xk	-10.8203
▁mathematicians	-10.8204
▁⃗0)	-10.8206
▁reaching	-10.8208
ars	-10.8214
▁God	-10.8222
▁commutators	-10.8229
▁fails	-10.8229
▁thin	-10.8236
▁mostly	-10.8239
▁professors	-10.8241
▁311	-10.8242
▁≃0	-10.8246
▁yes	-10.826
cted	-10.8264
▁produces	-10.8267
vL	-10.8275
μνλσ	-10.8291
ron	-10.8307
▁Sij	-10.8325
▁limited	-10.8326
▁lA	-10.8343
▁368	-10.8344
▁778	-10.8351
27;	-10.8353
▁Mathematical	-10.8408
itting	-10.8416
say	-10.842
ments	-10.8429
▁determines	-10.8444
▁445	-10.8467
▁eA	-10.848
cy	-10.8489
atin	-10.8516
Ji	-10.8521
ithout	-10.8568
▁ideas	-10.8581
ought	-10.8584
mv	-10.8616
ified	-10.8666
▁cones	-10.8671
▁qa	-10.8704
▁Insert	-10.8747
▁70	-10.8754
Xi	-10.8765
▁Hav	-10.877
part	-10.8823
▁rB	-10.8833
dding	-10.8845
ture	-10.8848
air	-10.8849
▁contribute	-10.8859
hern	-10.8861
call	-10.8885
ification	-10.8886
continued	-10.8895
▁Exercise	-10.8897
▁appeal	-10.8908
▁̇⃗	-10.8927
▁≃(	-10.8936
▁Don	-10.894
more	-10.8941
▁radi	-10.8943
Birkhoff	-10.8946
Some	-10.8949
special	-10.8951
“	-10.8951
▁reverse	-10.8957
▁confuse	-10.8959
▁θθ	-10.8962
▁pull	-10.8972
▁enjoy	-10.8973
▁display	-10.8974
▁neglect	-10.8979
arallel	-10.8979
cosh	-10.8981
▁transfor	-10.8981
▁Am	-10.8984
▁perform	-10.8985
▁astonishing	-10.8988
▁theoretic	-10.8988
odern	-10.8989
▁academic	-10.8992
▁generic	-10.8992
ological	-10.8993
▁priori	-10.8993
▁clarify	-10.8993
▁Determin	-10.8993
▁Heuristic	-10.8993
▁Joseph	-10.8993
▁clutter	-10.8993
▁ellips	-10.8993
▁sneak	-10.8993
▁David	-10.8993
▁Differentiation	-10.8993
▁Easier	-10.8993
▁Green	-10.8993
▁Kepler	-10.8993
▁Michell	-10.8993
▁Physicists	-10.8993
▁Scientific	-10.8993
▁Solving	-10.8993
▁Twistors	-10.8993
▁acoustic	-10.8993
▁ambitwistor	-10.8993
▁applies	-10.8993
▁arbitrarily	-10.8993
▁astrophysical	-10.8993
▁attitude	-10.8993
▁block	-10.8993
▁clue	-10.8993
▁contemplate	-10.8993
▁covariance	-10.8993
▁crank	-10.8993
▁doctrine	-10.8993
▁eigenvalues	-10.8993
▁eyeball	-10.8993
▁generation	-10.8993
▁infinities	-10.8993
▁instability	-10.8993
▁microscopic	-10.8993
▁mysteries	-10.8993
▁obliged	-10.8993
▁perturbation	-10.8993
▁philosophy	-10.8993
▁proverbial	-10.8993
▁quote	-10.8993
▁response	-10.8993
▁screen	-10.8993
▁significance	-10.8993
▁simultaneity	-10.8993
▁subextremal	-10.8993
▁valid	-10.8993
▁wormhole	-10.8993
▁⎜⎝	-10.8993
▁Topological	-10.8993
▁shorthand	-10.8993
▁Therefore	-10.8993
▁oriented	-10.8993
▁Prize	-10.8993
▁Good	-10.8993
▁convinced	-10.8993
▁Lineariz	-10.8993
▁resist	-10.8993
▁(199	-10.8993
▁game	-10.8993
▁(48)	-10.8993
▁lack	-10.8993
▁definiteness	-10.8993
▁wire	-10.8993
▁adjust	-10.8993
▁relationship	-10.8993
▁commute	-10.8994
▁incoming	-10.8994
▁underlying	-10.8994
▁Society	-10.8994
▁723	-10.8994
▁Tests	-10.8994
▁(39)	-10.8994
▁seemingly	-10.8995
▁detection	-10.8995
quar	-10.8995
▁preserve	-10.8995
▁trade	-10.8995
Brane	-10.8996
▁Points	-10.8996
▁fractional	-10.8997
▁accurately	-10.8998
▁roughly	-10.8998
aware	-10.8999
▁Surely	-10.9
▁476	-10.9
▁truth	-10.9001
▁anybody	-10.9001
ities	-10.9001
▁labor	-10.9001
▁1919	-10.9002
▁interpretation	-10.9002
▁eHt	-10.9003
▁catch	-10.9003
▁lying	-10.9004
▁kick	-10.9005
▁largest	-10.9005
▁heavy	-10.9005
▁Many	-10.9007
▁entr	-10.9008
▁730	-10.901
▁somewhere	-10.9012
▁home	-10.9013
▁lim	-10.9014
▁concern	-10.9015
▁96	-10.9017
Simons	-10.9017
ww	-10.9019
▁518	-10.9019
(∞)	-10.9019
▁49	-10.9019
▁paradoxes	-10.9021
▁expectation	-10.9021
▁114	-10.9024
▁394	-10.9026
▁1960	-10.9026
▁664	-10.9027
ξσ	-10.9029
▁sticking	-10.9033
▁Waves	-10.9036
▁mation	-10.9037
▁greater	-10.9039
preferred	-10.904
▁fable	-10.904
▁equivalently	-10.9042
▁Tell	-10.9045
▁cost	-10.9051
ual	-10.9055
▁bounded	-10.9055
▁reduced	-10.9057
▁105	-10.9058
▁621	-10.906
▁cut	-10.9064
▁correctly	-10.9064
▁She	-10.9066
dec	-10.9067
▁169	-10.9072
▁631	-10.9076
▁growing	-10.9079
▁independently	-10.9084
▁θφ	-10.9085
▁primes	-10.9086
ξρ	-10.9086
▁bab	-10.9097
84;	-10.9098
vt	-10.9099
arious	-10.91
avier	-10.9101
hortest	-10.9109
ich	-10.911
▁̈u	-10.912
▁MN	-10.9139
9),	-10.914
▁underline	-10.9142
▁54	-10.9151
rdr	-10.9156
▁139	-10.9158
▁integrals	-10.9159
▁580	-10.916
▁bother	-10.9164
89;	-10.9181
▁rel	-10.9184
▁±1	-10.9189
▁assumptions	-10.9192
▁equally	-10.9195
▁Ni	-10.9196
ption	-10.9203
▁118	-10.9205
ημλ	-10.9227
asically	-10.9241
▁cot	-10.9257
▁Po	-10.9278
▁sounds	-10.928
▁221	-10.9283
use	-10.9287
▁continues	-10.9288
▁turning	-10.9321
evi	-10.9353
38	-10.9362
cut	-10.9408
▁lives	-10.9419
40;	-10.9433
▁bi	-10.9436
ωα	-10.9436
▁assert	-10.9447
▁1.)	-10.9452
port	-10.9485
▁188	-10.9486
▁λσ	-10.9487
77;	-10.9488
ational	-10.9514
▁2(1	-10.9526
▁drag	-10.9551
▁Pg	-10.9556
51;	-10.9575
rSdr	-10.9589
▁mis	-10.9596
ashed	-10.9597
set	-10.9631
▁678	-10.9637
▁Promot	-10.9642
)(∂	-10.9679
▁473	-10.9705
▁73	-10.973
−−	-10.9746
)).	-10.9755
▁stop	-10.9773
▁net	-10.9779
βγ	-10.9795
▁fo	-10.9802
▁ρν	-10.9802
▁5:	-10.9812
Do	-10.9819
dxidxj	-10.9824
▁sine	-10.9838
▁186	-10.9841
▁worlds	-10.9848
▁prime	-10.9866
▁occasion	-10.989
▁neutrino	-10.9892
▁visualize	-10.9895
▁generator	-10.9897
particle	-10.9907
▁eye	-10.9909
–37	-10.9911
other	-10.9914
43;	-10.9915
round	-10.9922
▁develop	-10.9935
what	-10.9939
▁pose	-10.9941
hole	-10.9947
waving	-10.9949
open	-10.995
defined	-10.9951
scalar	-10.9951
▁783	-10.9952
▁anticipate	-10.9959
▁accelerate	-10.9959
▁dominate	-10.9959
▁Curve	-10.9959
elativistic	-10.9961
▁specialize	-10.9964
▁xn	-10.997
▁travers	-10.9973
▁stretch	-10.9974
▁185	-10.9979
▁unique	-10.9981
timately	-10.9986
–76	-10.9987
rief	-10.9987
tructure	-10.9989
▁nonlinear	-10.9991
▁86	-10.9991
▁ultra	-10.9992
▁instruct	-10.9992
▁Robert	-10.9993
▁laugh	-10.9993
▁permut	-10.9993
▁⃗P	-10.9993
▁Ansatz	-10.9993
▁Bernoulli	-10.9993
▁Broglie	-10.9993
▁Chandrasekhar	-10.9993
▁Compton	-10.9993
▁Conventions	-10.9993
▁Extra	-10.9993
▁Hodge	-10.9993
▁Mechanics	-10.9993
▁Paradox	-10.9993
▁Richard	-10.9993
▁Sommerfeld	-10.9993
▁Taylor	-10.9993
▁Vector	-10.9993
▁communicate	-10.9993
▁comparable	-10.9993
▁confound	-10.9993
▁dictate	-10.9993
▁foreshadow	-10.9993
▁furnish	-10.9993
▁generalizing	-10.9993
▁geometries	-10.9993
▁inequality	-10.9993
▁introductory	-10.9993
▁modify	-10.9993
▁program	-10.9993
▁promotion	-10.9993
▁propagator	-10.9993
▁tetrahedron	-10.9993
▁wimps	-10.9993
▁blame	-10.9993
▁decide	-10.9993
▁746	-10.9993
▁Charge	-10.9993
▁blob	-10.9993
▁confine	-10.9993
▁endowed	-10.9993
▁isometric	-10.9993
▁improved	-10.9993
▁iterative	-10.9993
▁parity	-10.9993
▁Power	-10.9993
▁girl	-10.9993
▁leap	-10.9993
▁tedious	-10.9993
▁flipping	-10.9993
▁omitted	-10.9993
▁occurred	-10.9993
▁patent	-10.9993
▁wander	-10.9993
▁business	-10.9993
▁Formula	-10.9993
▁cosine	-10.9993
▁medium	-10.9993
▁(44)	-10.9993
▁emb	-10.9993
▁image	-10.9994
▁Math	-10.9994
▁contradiction	-10.9994
▁Nutshell	-10.9994
▁title	-10.9994
▁acquire	-10.9994
▁consistency	-10.9994
▁worthwhile	-10.9994
▁normalization	-10.9994
▁forget	-10.9994
▁probability	-10.9994
Which	-10.9994
}}	-10.9995
▁607	-10.9996
▁confirm	-10.9996
alue	-10.9996
▁planetary	-10.9996
▁span	-10.9996
▁extremize	-10.9996
▁lifetime	-10.9996
▁amusing	-10.9997
▁523	-10.9997
▁376	-10.9998
▁nevertheless	-10.9999
▁2009	-10.9999
▁387	-10.9999
▁fairly	-10.9999
▁manifestation	-10.9999
▁inspired	-10.9999
▁Year	-10.9999
▁357	-11
▁>∼	-11
▁causality	-11
▁$	-11
▁iron	-11.0001
▁141	-11.0002
▁chain	-11.0002
▁logic	-11.0002
▁unifying	-11.0002
▁1916	-11.0002
▁ρλ	-11.0002
▁richer	-11.0003
▁recombination	-11.0005
▁circumference	-11.0005
▁emitt	-11.0005
▁2005	-11.0005
▁531	-11.0005
▁walk	-11.0006
▁638	-11.0008
▁Thanks	-11.0009
▁Applying	-11.0013
▁born	-11.0015
▁displayed	-11.0015
▁smallest	-11.0016
▁someone	-11.0016
▁Inside	-11.0016
▁252	-11.0016
▁781;	-11.0017
▁joining	-11.002
▁elegantly	-11.002
side	-11.002
▁intuitively	-11.002
▁456	-11.0021
▁780;	-11.0022
▁ranging	-11.0022
mediate	-11.0023
▁ħG	-11.0023
▁1990	-11.0027
▁403	-11.0028
▁460	-11.0028
▁child	-11.0028
▁experimentally	-11.0029
▁main	-11.0033
▁244	-11.0033
Plot	-11.0034
▁specialized	-11.0034
▁gone	-11.0035
▁304	-11.0035
▁strip	-11.0035
▁received	-11.0036
▁breaking	-11.0045
▁(197	-11.0046
▁ħc	-11.0047
▁uni	-11.0047
▁connected	-11.0048
▁traveled	-11.0052
▁calculations	-11.0053
dudv	-11.0054
▁relatively	-11.0059
▁deform	-11.0059
▁appropriately	-11.0061
▁antiparticles	-11.0063
▁194	-11.0063
▁doomed	-11.0067
▁generality	-11.0071
▁367	-11.0071
▁3).	-11.0075
▁helpful	-11.0075
▁Call	-11.0076
▁watching	-11.0076
▁negatively	-11.0077
▁Did	-11.0078
▁174	-11.0079
123	-11.008
some	-11.0083
▁responds	-11.0084
▁argued	-11.0085
▁insert	-11.0086
▁Far	-11.0088
▁neutrinos	-11.0095
▁94	-11.0108
heck	-11.0109
▁517	-11.0113
▁187	-11.0118
▁657	-11.0144
▁consequences	-11.0149
▁772	-11.0154
uring	-11.0158
▁397	-11.0163
ending	-11.0167
14)	-11.0176
▁concluded	-11.0194
▁handle	-11.0205
▁231	-11.0217
ose	-11.0218
▁il	-11.022
▁unity	-11.0224
rk	-11.0241
▁566	-11.0261
σζ	-11.0279
▁meant	-11.0285
ua	-11.0287
▁signals	-11.0302
3)2	-11.0308
▁deriv	-11.0309
▁dots	-11.0313
▁9-	-11.0316
88;	-11.0332
▁99	-11.0344
▁1/2	-11.0351
▁invok	-11.0369
ier	-11.0388
▁lowered	-11.0392
ainle	-11.0404
let	-11.0419
▁guys	-11.0446
▁pairs	-11.0457
dxb	-11.0497
▁Dynamic	-11.0515
do	-11.053
▁continu	-11.0535
▁flows	-11.0558
▁conve	-11.0563
▁assign	-11.0583
”?	-11.0611
▁notions	-11.0627
▁ordering	-11.0642
▁555	-11.0642
▁translations	-11.0649
μνδ	-11.0662
▁xj	-11.0694
▁teach	-11.0697
▁164	-11.0714
ble	-11.073
▁βμ	-11.0753
▁λκ	-11.0756
▁dw	-11.0777
ull	-11.0807
ngular	-11.0817
▁625	-11.0821
▁Hig	-11.0822
▁expresse	-11.0846
ck	-11.0857
▁lo	-11.0884
producing	-11.0884
▁intriguing	-11.0887
▁equ	-11.091
▁189	-11.0929
▁75	-11.0977
▁vt	-11.0983
⃗qa	-11.0985
you	-11.0987
13;	-11.0996
▁application	-11.1001
▁domain	-11.1002
▁respond	-11.1003
▁268	-11.1016
▁blow	-11.1017
Rij	-11.1018
ather	-11.1021
▁vol	-11.1023
▁gluon	-11.1039
ord	-11.1041
▁plung	-11.1051
Robertson	-11.1059
Leibniz	-11.1061
That	-11.1062
second	-11.1062
Since	-11.1062
▁359	-11.1062
after	-11.1062
→0	-11.1064
▁emit	-11.1066
Now	-11.1068
▁arrange	-11.1068
▁build	-11.1069
▁obey	-11.1069
▁advance	-11.107
▁restore	-11.107
▁hol	-11.1074
▁754	-11.1077
▁rigor	-11.1078
▁765	-11.1078
sky	-11.1078
(1/	-11.1083
▁571	-11.1086
lines	-11.1092
ization	-11.1093
oncise	-11.1097
▁inertia	-11.1098
truggle	-11.11
ariational	-11.11
▁Equati	-11.1102
▁numer	-11.1103
▁subtle	-11.1104
▁crash	-11.1104
▁exhibit	-11.1104
Finkelstein	-11.1104
Gullstrand	-11.1104
Hamed	-11.1104
Thirring	-11.1104
resumably	-11.1104
▁April	-11.1104
▁Clock	-11.1104
▁Cosmic	-11.1104
▁Friedrich	-11.1104
▁Hooft	-11.1104
▁RikRjl	-11.1104
▁Tolman	-11.1104
▁Vielbein	-11.1104
▁array	-11.1104
▁arrow	-11.1104
▁auxiliary	-11.1104
▁children	-11.1104
▁comparison	-11.1104
▁conjecture	-11.1104
▁conjugate	-11.1104
▁coordinatize	-11.1104
▁deuteron	-11.1104
▁emerging	-11.1104
▁equilibrium	-11.1104
▁extensive	-11.1104
▁forgotten	-11.1104
▁globe	-11.1104
▁historian	-11.1104
▁kinematic	-11.1104
▁lensing	-11.1104
▁middle	-11.1104
▁misleading	-11.1104
▁multitude	-11.1104
▁nifty	-11.1104
▁perturbative	-11.1104
▁philosopher	-11.1104
▁significant	-11.1104
▁squashed	-11.1104
▁unstable	-11.1104
▁visibility	-11.1104
▁⃗A	-11.1104
▁⎟⎟⎠	-11.1104
▁Isaac	-11.1104
▁Swede	-11.1104
▁balloon	-11.1104
▁binary	-11.1104
▁glory	-11.1104
▁miles	-11.1104
▁nasty	-11.1104
▁ancient	-11.1104
▁mentally	-11.1104
▁novel	-11.1104
▁sweep	-11.1104
▁tempted	-11.1104
▁SKK	-11.1104
▁inflaton	-11.1104
▁annihilation	-11.1104
▁outlined	-11.1104
▁570;	-11.1104
▁Over	-11.1104
▁561;	-11.1104
▁farther	-11.1104
▁Outside	-11.1104
▁741	-11.1104
▁dumb	-11.1104
▁quadrupole	-11.1104
▁maintain	-11.1105
▁446	-11.1105
▁referring	-11.1105
▁homogeneity	-11.1105
▁unfortunate	-11.1105
▁speculative	-11.1105
▁jud	-11.1105
▁181;	-11.1105
▁614	-11.1105
▁ADM	-11.1105
▁Jacobian	-11.1105
▁fool	-11.1105
▁2004.	-11.1105
▁attraction	-11.1105
▁lattice	-11.1105
▁asymptotically	-11.1105
▁transition	-11.1105
▁couch	-11.1105
▁report	-11.1106
▁148	-11.1106
▁race	-11.1106
▁framework	-11.1106
▁elsewhere	-11.1106
▁utter	-11.1106
▁possesses	-11.1106
▁Count	-11.1106
▁realization	-11.1106
▁joke	-11.1106
▁article	-11.1106
▁difficulties	-11.1107
▁(38)	-11.1107
▁intersection	-11.1107
▁member	-11.1107
▁substance	-11.1107
▁672;	-11.1107
▁mix	-11.1107
▁exception	-11.1108
▁graduate	-11.1108
▁(37)	-11.1108
▁spaceship	-11.1108
▁496	-11.1108
▁642	-11.1108
teful	-11.1108
ctive	-11.1108
▁Afr	-11.1109
▁metal	-11.1109
▁(42)	-11.111
▁2006	-11.111
▁letting	-11.111
▁756	-11.111
▁dueling	-11.111
▁738	-11.1111
▁rise	-11.1111
▁716	-11.1112
▁considerably	-11.1112
▁506	-11.1112
▁Hermann	-11.1112
▁centrifugal	-11.1112
▁passes	-11.1112
▁pretend	-11.1113
▁636	-11.1113
▁ρνω	-11.1114
▁495	-11.1114
▁Russian	-11.1114
▁296	-11.1115
▁trigonometr	-11.1115
▁throughout	-11.1116
▁442	-11.1116
ency	-11.1116
▁Does	-11.1116
▁thinkers	-11.1117
▁attached	-11.1117
▁298	-11.1118
▁designed	-11.1118
▁wall	-11.1118
▁342	-11.1118
▁438	-11.1119
▁565	-11.1119
▁whi	-11.1119
▁briefly	-11.1122
▁naked	-11.1123
▁750	-11.1123
▁patch	-11.1123
▁shorter	-11.1124
▁chap	-11.1124
▁365	-11.1124
,000	-11.1126
▁locality	-11.1126
▁′′(	-11.1126
▁757;	-11.1126
▁Gary	-11.1127
▁spend	-11.1127
▁pound	-11.1128
▁Jebsen	-11.1128
▁610	-11.113
▁̃w	-11.1131
anging	-11.1133
▁++)	-11.1134
▁1970	-11.1139
▁wondered	-11.114
▁̇⃗r	-11.114
▁previously	-11.1143
▁Way	-11.1145
▁pulling	-11.1146
▁pure	-11.1146
▁̃α	-11.1147
▁maj	-11.1148
▁654	-11.1152
▁783;	-11.1152
▁2011	-11.1155
▁Page	-11.1156
▁Gki	-11.1156
▁plunge	-11.1158
85;	-11.1158
ock	-11.1161
▁761	-11.1161
▁223	-11.1162
▁interacting	-11.1162
▁ought	-11.1162
▁779	-11.1168
▁lumps	-11.117
▁ηρσ	-11.1176
▁569	-11.1176
▁467	-11.1177
▁138	-11.1177
▁seemed	-11.1178
▁Classical	-11.1178
▁tage	-11.1178
rSar	-11.1181
▁covered	-11.1182
▁379	-11.1182
▁tablet	-11.1187
▁legs	-11.1188
▁484	-11.1194
▁Einsteinian	-11.1197
▁707	-11.1197
▁161	-11.1199
▁130	-11.1202
▁422	-11.1207
▁blows	-11.1207
▁drd	-11.1208
▁160	-11.121
▁appealing	-11.121
▁Gij	-11.1212
yj	-11.1214
▁77	-11.1217
que	-11.1223
▁expert	-11.1223
▁semi	-11.1224
▁νλσ	-11.1231
▁gun	-11.1236
posing	-11.1238
ties	-11.1243
▁stu	-11.1249
▁affects	-11.1255
sche	-11.127
▁Bij	-11.128
▁582	-11.1286
▁Les	-11.1289
▁hits	-11.1293
▁invari	-11.13
▁784	-11.1309
▁Rab	-11.131
▁249	-11.1313
▁λα	-11.1314
▁682	-11.1324
▁mentioning	-11.1336
opped	-11.1342
93;	-11.1351
▁transporting	-11.1352
▁216	-11.1354
▁pla	-11.1355
▁explains	-11.1379
▁rotates	-11.139
▁War	-11.1431
▁689	-11.1432
org	-11.1436
(1)	-11.1445
gged	-11.1447
▁177	-11.1468
▁̃t	-11.1468
▁crosse	-11.1482
▁412	-11.1488
▁755	-11.15
▁Aij	-11.1508
▁242	-11.1514
62;	-11.1531
▁ωσ	-11.1533
▁formulas	-11.1552
yl	-11.1573
▁kj	-11.1587
▁accounts	-11.159
▁ho	-11.1596
▁183	-11.1606
ean	-11.164
▁εμνλ	-11.1654
By	-11.1671
▁σδ	-11.1671
nus	-11.17
▁ado	-11.1718
▁109	-11.1747
▁ki	-11.1752
.3)	-11.1758
▁634	-11.1768
′′2	-11.1787
plan	-11.181
▁pictures	-11.1833
▁1)/	-11.1842
dU	-11.1852
rrS	-11.1896
▁wing	-11.1905
▁645	-11.1906
▁Ol	-11.1917
▁483	-11.1925
86;	-11.195
▁bar	-11.1992
[(	-11.2014
▁decreas	-11.2015
▁474	-11.2075
▁Line	-11.2132
.15	-11.2154
▁212	-11.2187
..∂	-11.2198
▁evolve	-11.2216
▁mechanic	-11.2258
opping	-11.2272
gravity	-11.2289
ide	-11.2291
▁radiat	-11.2295
peri	-11.2302
cent	-11.2302
▁accord	-11.2306
istribution	-11.2309
child	-11.231
tensor	-11.2311
Also	-11.2311
straight	-11.2311
Feynman	-11.2312
>	-11.2312
down	-11.2312
One	-11.2313
▁742	-11.2314
▁444	-11.2315
reasonable	-11.2316
▁579	-11.2317
even	-11.2318
▁page	-11.2318
▁combine	-11.2319
▁386	-11.2319
▁tilt	-11.232
▁join	-11.2321
▁obscure	-11.2321
▁Integrat	-11.2321
▁Star	-11.2322
▁409	-11.2322
▁formulate	-11.2323
grr	-11.2324
earth	-11.2325
elated	-11.2332
▁704	-11.2332
2(−	-11.2333
▁suspect	-11.2335
▁suitabl	-11.2336
fication	-11.234
▁invent	-11.2342
▁pack	-11.2344
▁563	-11.2344
xtremal	-11.2346
▁751	-11.2346
xample	-11.2347
▁4–	-11.2347
▁Man	-11.2348
tato	-11.2348
ourse	-11.2348
▁Collecti	-11.235
ymmetric	-11.235
▁quant	-11.2351
▁birth	-11.2351
▁twist	-11.2351
▁attenti	-11.2352
▁asymptotic	-11.2353
▁identi	-11.2354
▁split	-11.2354
ographic	-11.2354
▁acausal	-11.2354
▁disappoint	-11.2354
▁spiral	-11.2354
Oppenheimer	-11.2354
Volkoff	-11.2354
▁(66)	-11.2354
▁296–297	-11.2354
▁Academ	-11.2354
▁Algebra	-11.2354
▁Bentley	-11.2354
▁Boltzmann	-11.2354
▁Chinese	-11.2354
▁Deviation	-11.2354
▁Faraday	-11.2354
▁French	-11.2354
▁Kasner	-11.2354
▁Library	-11.2354
▁Material	-11.2354
▁Problem	-11.2354
▁Three	-11.2354
▁absurd	-11.2354
▁analyze	-11.2354
▁bizarre	-11.2354
▁brilliant	-11.2354
▁bundle	-11.2354
▁candidate	-11.2354
▁carriage	-11.2354
▁chariot	-11.2354
▁community	-11.2354
▁counterrotating	-11.2354
▁degenerate	-11.2354
▁denominator	-11.2354
▁downstairs	-11.2354
▁exterior	-11.2354
▁guarantee	-11.2354
▁minimal	-11.2354
▁mnemonic	-11.2354
▁modification	-11.2354
▁obesity	-11.2354
▁preface	-11.2354
▁prevent	-11.2354
▁renormalization	-11.2354
▁shaded	-11.2354
▁simplification	-11.2354
▁squeeze	-11.2354
▁struggling	-11.2354
▁subscribe	-11.2354
▁terribly	-11.2354
▁trajectories	-11.2354
▁trunk	-11.2354
▁undergrad	-11.2354
▁wheel	-11.2354
▁⃗s	-11.2354
▁90◦	-11.2354
▁Happi	-11.2354
▁Jacobson	-11.2354
▁boiling	-11.2354
▁corotating	-11.2354
▁emanat	-11.2354
▁favorite	-11.2354
▁forbidden	-11.2354
▁funnel	-11.2354
▁tackl	-11.2354
▁vague	-11.2354
▁676	-11.2354
▁Bieri	-11.2354
▁Know	-11.2354
▁Wilson	-11.2354
▁cousin	-11.2354
▁diverge	-11.2354
▁shall	-11.2354
▁sensitiv	-11.2354
▁spanned	-11.2354
▁boson	-11.2354
▁copy	-11.2354
▁subtlety	-11.2354
ημληνρ	-11.2354
▁nucleons	-11.2354
▁mapped	-11.2354
▁stem	-11.2354
▁Both	-11.2354
▁Taking	-11.2354
▁accept	-11.2354
▁pleasing	-11.2354
▁inspection	-11.2354
▁progress	-11.2354
▁quadrant	-11.2354
▁663;	-11.2354
▁joy	-11.2354
▁Laws	-11.2354
▁714	-11.2354
▁risk	-11.2354
▁381;	-11.2354
▁Still	-11.2354
▁beginner	-11.2355
▁(47)	-11.2355
▁lurk	-11.2355
▁inclin	-11.2355
▁besides	-11.2355
▁isotropy	-11.2355
▁728	-11.2355
▁{{	-11.2355
▁749	-11.2355
▁pervade	-11.2355
▁environment	-11.2355
▁Boy	-11.2355
▁wise	-11.2355
▁Very	-11.2355
▁526	-11.2355
▁(198	-11.2355
▁independence	-11.2355
▁469;	-11.2356
▁528	-11.2356
▁transit	-11.2356
▁button	-11.2356
▁occasionally	-11.2356
▁182;	-11.2356
μλνρ	-11.2357
▁696	-11.2357
useum	-11.2358
▁635;	-11.2358
▁overwhelm	-11.2358
▁resolution	-11.2358
▁wide	-11.2358
▁country	-11.2358
stein	-11.2359
abea	-11.2359
▁classic	-11.2359
▁enable	-11.2359
▁conceivable	-11.236
▁257	-11.236
danger	-11.2361
▁exit	-11.2361
▁nail	-11.2361
▁relic	-11.2361
▁Novem	-11.2362
▁urge	-11.2362
▁stream	-11.2363
▁southern	-11.2363
ometimes	-11.2364
▁accessible	-11.2365
▁intrinsically	-11.2365
▁devoted	-11.2366
▁∼10−3	-11.2366
▁Out	-11.237
▁Would	-11.237
▁anyway	-11.2371
▁night	-11.2371
▁615;	-11.2372
▁544	-11.2373
▁suspected	-11.2374
▁Misner	-11.2375
▁managed	-11.2376
angle	-11.2379
▁414	-11.238
eparametrization	-11.2381
▁tanh	-11.2382
▁314	-11.2383
lbei	-11.2384
▁pdoomed	-11.2384
▁renamed	-11.2385
ρξμ	-11.2386
▁print	-11.2387
▁moon	-11.2387
▁allegedly	-11.2388
▁Gijk	-11.2389
▁emitter	-11.2389
▁356;	-11.239
▁combined	-11.239
▁fit	-11.239
80–	-11.2391
▁cry	-11.2391
▁106	-11.2392
▁339;	-11.2392
▁444;	-11.2395
▁rigorous	-11.2396
▁failed	-11.2398
▁address	-11.2401
▁754;	-11.2401
▁567	-11.2403
▁503	-11.2403
▁van	-11.2406
ign	-11.2407
▁shortly	-11.241
▁550	-11.2416
▁collisions	-11.2416
▁matching	-11.242
▁remaining	-11.2421
▁exploited	-11.2422
▁claimed	-11.2424
▁vir	-11.2424
▁belong	-11.2426
icious	-11.2428
▁%	-11.243
▁infinitely	-11.2435
▁Cal	-11.2441
▁369	-11.2442
uff	-11.2443
▁astronomers	-11.2444
▁parabolas	-11.2444
pted	-11.2444
μεν	-11.2447
▁reflects	-11.2447
▁511	-11.245
▁none	-11.2456
▁pages	-11.2457
▁meter	-11.2459
▁modes	-11.2462
kl	-11.2463
▁happening	-11.2467
▁domains	-11.2471
▁48;	-11.2475
▁visualiz	-11.248
▁1921	-11.2483
▁poses	-11.2485
▁occasions	-11.2485
▁752	-11.2495
▁229	-11.2496
νεμ	-11.2498
▁120	-11.2507
▁gyroscopes	-11.2527
▁segments	-11.2527
▁327	-11.2537
can	-11.2538
▁CP	-11.2542
renormalizable	-11.2544
▁equa	-11.2556
▁201	-11.2561
▁417	-11.2562
▁maximize	-11.2568
▁̃gl	-11.2583
jki	-11.2586
▁erroneous	-11.2589
▁bead	-11.2593
▁Jj	-11.26
▁kl	-11.2607
▁sheets	-11.2611
ism	-11.2642
oad	-11.2661
nted	-11.2668
▁127	-11.267
▁Los	-11.267
▁pri	-11.2672
=1(	-11.2673
▁idealiz	-11.2686
▁172	-11.2691
▁374	-11.2691
ential	-11.27
ressing	-11.2702
▁210	-11.2704
▁400	-11.2705
aving	-11.2712
▁Ein	-11.273
▁573	-11.2754
▁632	-11.2758
▁225	-11.2766
▁666	-11.2769
▁wanted	-11.2775
▁refers	-11.2781
−1∂	-11.2781
▁284	-11.2788
▁gain	-11.2797
▁134	-11.2797
▁478	-11.2812
▁,00	-11.2814
▁Promoti	-11.2817
▁583	-11.2822
15;	-11.2824
▁includes	-11.2827
(1+	-11.2828
▁688	-11.2831
▁89	-11.2848
▁methods	-11.2881
▁383	-11.2885
cated	-11.2929
lP	-11.2931
▁operational	-11.2931
▁considering	-11.2937
▁approaching	-11.2941
eaning	-11.2946
▁574	-11.2961
▁leg	-11.2965
▁534	-11.2969
▁527	-11.2971
▁366	-11.2971
▁rdr	-11.298
▁472	-11.3019
▁393	-11.3036
anta	-11.3055
▁conventional	-11.3058
▁cur	-11.3075
▁453	-11.308
lli	-11.3102
▁gal	-11.3181
73;	-11.3184
▁speculate	-11.319
4)2	-11.3204
▁413	-11.3219
ator	-11.3224
▁hop	-11.3282
▁215	-11.3308
ended	-11.3324
)}	-11.3351
▁sw	-11.3364
(1−	-11.3367
eiS	-11.337
EF	-11.3442
▁symmetrical	-11.3475
ipping	-11.3484
▁360	-11.3497
∗+	-11.358
72;	-11.3585
ools	-11.3588
dimen	-11.3588
▁heav	-11.3594
GE	-11.3606
ause	-11.3623
▁clos	-11.3628
▁184	-11.365
▁sal	-11.3657
umin	-11.3677
▁discrepanc	-11.3678
▁reflect	-11.368
▁astronomer	-11.3681
▁parabola	-11.3681
▁yield	-11.3683
▁enter	-11.3684
▁suffice	-11.3686
▁implie	-11.3687
▁molecule	-11.3687
▁antiparticle	-11.3703
▁Hole	-11.3705
▁statu	-11.3708
antly	-11.3714
know	-11.3724
▁neutral	-11.3728
gluon	-11.3738
under	-11.3739
Compare	-11.374
amax	-11.374
Lema	-11.374
closed	-11.374
magnetic	-11.374
certain	-11.374
measure	-11.374
▁748	-11.374
<	-11.374
different	-11.374
gravitational	-11.374
energy	-11.374
▁451	-11.374
when	-11.374
SEH	-11.3741
▁780	-11.3742
▁disguise	-11.3746
▁remove	-11.3747
▁520	-11.3748
▁rename	-11.3748
▁neighbor	-11.375
▁characterize	-11.375
▁requir	-11.3751
▁constrain	-11.3751
8),	-11.3753
▁339	-11.3756
▁depict	-11.3762
▁establish	-11.3764
▁159	-11.3765
▁770	-11.3767
▁secret	-11.377
▁identical	-11.3771
▁immediate	-11.3771
icture	-11.3773
▁514	-11.3774
▁764	-11.3776
onceptually	-11.3777
ntuitively	-11.3777
sometry	-11.3777
▁356	-11.3777
sign	-11.3778
▁Physical	-11.3778
▁338	-11.3781
▁683	-11.3781
▁exam	-11.3782
▁composite	-11.3782
▁Jacob	-11.3782
▁Speak	-11.3783
public	-11.3783
▁Eliminat	-11.3783
(∇)2	-11.3783
Lindquist	-11.3783
Nambu	-11.3783
Strictly	-11.3783
congruence	-11.3783
craft	-11.3783
crazy	-11.3783
evitably	-11.3783
▁(2011)	-11.3783
▁303–304	-11.3783
▁497–	-11.3783
▁57–59	-11.3783
▁725–72	-11.3783
▁90–91	-11.3783
▁Angeles	-11.3783
▁Approach	-11.3783
▁Babylonian	-11.3783
▁Calculus	-11.3783
▁Carroll	-11.3783
▁Cavendish	-11.3783
▁Certainly	-11.3783
▁Copenhagen	-11.3783
▁Coulomb	-11.3783
▁Damour	-11.3783
▁Emperor	-11.3783
▁James	-11.3783
▁Numerical	-11.3783
▁Obviously	-11.3783
▁Pierre	-11.3783
▁Quite	-11.3783
▁Replac	-11.3783
▁Sakurai	-11.3783
▁Strait	-11.3783
▁Thomson	-11.3783
▁Transport	-11.3783
▁accelerators	-11.3783
▁arises	-11.3783
▁awkward	-11.3783
▁beauty	-11.3783
▁blast	-11.3783
▁composed	-11.3783
▁contravariant	-11.3783
▁correlated	-11.3783
▁customary	-11.3783
▁deceleration	-11.3783
▁decouple	-11.3783
▁emphasis	-11.3783
▁extraordinar	-11.3783
▁false	-11.3783
▁fermion	-11.3783
▁foliation	-11.3783
▁humble	-11.3783
▁hypothesis	-11.3783
▁innocuous	-11.3783
▁irreducible	-11.3783
▁lemma	-11.3783
▁multiple	-11.3783
▁noninteracting	-11.3783
▁okay	-11.3783
▁pulsating	-11.3783
▁raising	-11.3783
▁ripples	-11.3783
▁severely	-11.3783
▁shocked	-11.3783
▁slope	-11.3783
▁stories	-11.3783
▁supposition	-11.3783
▁tunnel	-11.3783
▁zillion	-11.3783
▁⃗σ	-11.3783
Morley	-11.3783
▁Spherical	-11.3783
▁deviate	-11.3783
▁innermost	-11.3783
▁lifeguard	-11.3783
▁pictorial	-11.3783
▁suffer	-11.3783
belief	-11.3783
▁glaring	-11.3783
▁brush	-11.3783
▁color	-11.3783
▁tilde	-11.3783
▁ωηκ	-11.3783
▁Donder	-11.3783
▁animal	-11.3783
▁chance	-11.3783
▁598	-11.3783
▁neighborhood	-11.3783
▁Writing	-11.3783
▁postpone	-11.3783
▁denoting	-11.3783
▁warped	-11.3783
▁genus	-11.3783
▁βφβ	-11.3783
▁595	-11.3783
▁Umax	-11.3783
▁misconception	-11.3783
▁priority	-11.3783
Mann	-11.3783
▁665;	-11.3783
▁(41)	-11.3783
▁cutoff	-11.3783
▁entity	-11.3783
▁temp	-11.3783
▁594	-11.3783
▁constitute	-11.3783
▁nonabelian	-11.3783
▁(59)	-11.3783
▁633;	-11.3783
▁plotted	-11.3783
▁excitement	-11.3783
▁Other	-11.3783
▁bath	-11.3783
▁flash	-11.3783
▁summing	-11.3783
▁(49)	-11.3783
▁hollow	-11.3783
▁intellectual	-11.3783
▁referee	-11.3783
▁644	-11.3783
▁communication	-11.3783
▁641	-11.3784
▁ergoregion	-11.3784
▁604	-11.3784
▁erect	-11.3784
▁(43)	-11.3784
▁2010.	-11.3784
▁530	-11.3784
▁(45)	-11.3784
▁dramatically	-11.3784
11,22	-11.3784
▁Somehow	-11.3784
▁underlie	-11.3784
▁218;	-11.3784
▁nominal	-11.3784
▁elaborate	-11.3784
▁∼1019	-11.3785
▁generically	-11.3785
▁Grav	-11.3785
▁sail	-11.3785
▁extremizing	-11.3786
▁439	-11.3786
▁426	-11.3786
▁suggestion	-11.3787
irthday	-11.3787
stationed	-11.3787
eigen	-11.3787
▁patches	-11.3787
▁736	-11.3788
▁759	-11.3788
▁235	-11.3788
▁tries	-11.3788
▁447	-11.3789
▁576	-11.3789
γωγ	-11.3789
▁588;	-11.3789
▁baryonic	-11.379
kept	-11.379
▁602	-11.379
▁controversy	-11.379
▁589;	-11.3791
▁loosely	-11.3792
▁concise	-11.3793
▁Introduc	-11.3793
▁Arthur	-11.3794
▁176	-11.3794
▁lob	-11.3794
▁airline	-11.3795
▁246	-11.3797
▁presumed	-11.3797
▁226	-11.3797
▁hour	-11.3797
▁Yet	-11.3797
▁713	-11.3798
▁Observer	-11.3798
▁326	-11.3799
▁Freeman	-11.3801
▁7–9	-11.3801
▁Readers	-11.3801
▁308	-11.3801
▁236	-11.3802
▁gases	-11.3802
▁136	-11.3804
▁rISCO	-11.3805
Let	-11.3806
▁gong	-11.3806
▁geometers	-11.3807
▁fish	-11.3809
▁evident	-11.381
▁seriously	-11.3811
▁compelling	-11.3812
▁206	-11.3812
▁739;	-11.3812
▁thrown	-11.3812
▁cru	-11.3813
▁205	-11.3813
▁resolved	-11.3813
▁served	-11.3814
▁147	-11.3814
nitial	-11.3816
▁forbid	-11.3816
▁recently	-11.3817
▁129;	-11.3818
▁731;	-11.3818
▁549;	-11.3819
▁removed	-11.3819
▁1925	-11.3819
▁......	-11.382
▁703	-11.3821
▁teacher	-11.3821
xjxk	-11.3821
▁drown	-11.3821
▁rmax	-11.3822
▁370	-11.3823
ρεμ	-11.3823
▁338;	-11.3824
▁514;	-11.3824
▁205;	-11.3824
▁duh	-11.3825
▁373	-11.3825
▁Had	-11.3829
▁teaching	-11.3829
∗=	-11.383
▁arranged	-11.383
▁742;	-11.3831
▁409;	-11.3832
Pb	-11.3833
▁fell	-11.3834
▁431	-11.3834
▁hero	-11.3836
▁765;	-11.3837
▁lectures	-11.3839
▁speculations	-11.3839
▁reversed	-11.3841
▁∝1	-11.3843
▁Robertson	-11.3843
▁294	-11.3843
▁̇⃗t	-11.3845
▁emerged	-11.3847
▁54;	-11.3851
▁661	-11.3851
▁Mar	-11.3851
year	-11.3855
▁682;	-11.3855
▁originally	-11.3856
come	-11.3856
▁closely	-11.3857
▁501	-11.386
▁pushing	-11.386
▁deduced	-11.3867
3+1	-11.3868
▁pays	-11.3871
▁serves	-11.3871
Bb	-11.3871
▁Hol	-11.3873
mdom	-11.3875
▁torsion	-11.3877
▁95	-11.3879
▁121	-11.3881
▁ada	-11.3882
▁278	-11.3883
▁drawn	-11.3888
▁molecules	-11.3888
▁421	-11.389
▁status	-11.389
▁duck	-11.3903
▁evolves	-11.3903
▁believed	-11.3905
βδ	-11.3914
hoto	-11.3918
ches	-11.3925
▁291	-11.3925
val	-11.394
▁ignoran	-11.3945
▁shifted	-11.3948
▁267	-11.3954
▁680	-11.3957
▁732	-11.3969
▁500	-11.3972
▁decompose	-11.3983
▁priv	-11.3984
verything	-11.3985
▁769	-11.3998
▁applications	-11.4
▁hints	-11.4016
simi	-11.4021
▁theoretically	-11.4033
▁372	-11.4046
cept	-11.4053
▁create	-11.4061
▁674	-11.4063
▁aside	-11.4072
▁indulge	-11.4077
▁727	-11.4078
▁382	-11.4097
▁curious	-11.4099
▁725	-11.41
▁462	-11.4105
▁baryons	-11.4115
▁treatments	-11.4132
⃗xE	-11.4147
▁659	-11.4155
▁originate	-11.4159
▁675	-11.416
▁512	-11.4164
▁eM	-11.4165
pq	-11.4182
▁reject	-11.4196
▁719	-11.4213
▁finish	-11.4214
▁777	-11.4249
.5).	-11.4297
▁762	-11.4322
▁686	-11.4328
▁243	-11.4331
▁dxj	-11.4341
▁dyi	-11.4364
▁312	-11.4387
–50	-11.4392
74;	-11.4398
▁207	-11.4401
ken	-11.4469
orldline	-11.4487
▁Har	-11.4501
oke	-11.4508
tory	-11.4535
▁im	-11.4549
idxi	-11.4569
▁143	-11.4574
▁sion	-11.4574
▁Car	-11.4597
▁578	-11.4632
▁assured	-11.4661
▁package	-11.4672
35;	-11.4684
▁press	-11.4792
wj	-11.483
697	-11.4883
hair	-11.4937
ung	-11.4988
▁fir	-11.5022
▁568	-11.505
inning	-11.5081
▁313	-11.5083
▁algebraic	-11.5095
▁471	-11.5122
▁κσ	-11.5131
erroneously	-11.5138
▁Every	-11.5182
▁foundation	-11.5234
66;	-11.5243
▁alter	-11.5289
▁serve	-11.531
▁relat	-11.5318
sequently	-11.5333
▁shrink	-11.5345
▁exclaim	-11.5345
▁monopole	-11.5345
▁comment	-11.5348
▁lump	-11.5348
▁hyperbola	-11.535
shing	-11.5363
cosmological	-11.5385
▁argu	-11.5397
▁767	-11.54
498;	-11.5402
&	-11.5403
evident	-11.5404
wanted	-11.5404
length	-11.5404
rmax	-11.5405
work	-11.5405
→∞	-11.5406
twistor	-11.5406
complete	-11.5406
Notice	-11.5407
common	-11.5407
nonrelativistic	-11.5407
just	-11.5407
volume	-11.5407
conformal	-11.5407
≡	-11.5407
When	-11.5407
field	-11.5407
Why	-11.5407
More	-11.5407
square	-11.5407
Cijk	-11.541
SMaxwell	-11.541
▁781	-11.5413
▁resolve	-11.5414
▁549	-11.5415
▁associate	-11.5416
mass	-11.5416
inside	-11.5416
▁Apply	-11.5416
▁766	-11.5417
▁717	-11.5418
▁compell	-11.5418
nversely	-11.5419
also	-11.5419
▁293	-11.5425
▁attract	-11.5427
Yes	-11.5429
auge	-11.5429
egate	-11.543
▁enclos	-11.543
▁attach	-11.543
how	-11.5432
▁Paul	-11.5435
▁practical	-11.5437
▁hang	-11.5437
▁invert	-11.5439
xcellent	-11.5439
ortunately	-11.5442
nflationary	-11.5444
inite	-11.5444
GMN	-11.5444
▁Add	-11.5446
▁731	-11.5446
▁profess	-11.5446
this	-11.5448
▁dramatic	-11.5448
▁quest	-11.5448
▁⎟⎠	-11.5448
▁contradict	-11.5448
▁exponent	-11.5448
twiddle	-11.5449
◦	-11.5449
therwise	-11.5449
Alembert	-11.5449
⎜⎜⎜⎜	-11.5449
⎟⎟⎟⎟	-11.5449
▁launch	-11.5449
algorithm	-11.5449
▁Michelson	-11.5449
▁Subtract	-11.5449
▁daydream	-11.5449
▁hundred	-11.5449
▁incorporat	-11.5449
▁scientific	-11.5449
incomprehensible	-11.5449
iraculous	-11.5449
ourney	-11.5449
residual	-11.5449
▁(5–7)	-11.5449
▁502–503	-11.5449
▁563–577	-11.5449
▁608;	-11.5449
▁673–674	-11.5449
▁708–709	-11.5449
▁711–712	-11.5449
▁720–721	-11.5449
▁Barbara	-11.5449
▁Berlin	-11.5449
▁Bessel	-11.5449
▁Bronstein	-11.5449
▁Charl	-11.5449
▁Earlier	-11.5449
▁Ehrenfest	-11.5449
▁Marolf	-11.5449
▁Mukhanov	-11.5449
▁Normally	-11.5449
▁Ptolemy	-11.5449
▁Quot	-11.5449
▁Raychaudhuri	-11.5449
▁Rumford	-11.5449
▁Salviati	-11.5449
▁Soldner	-11.5449
▁Sophus	-11.5449
▁Stanley	-11.5449
▁Strominger	-11.5449
▁Sylvester	-11.5449
▁Taipei	-11.5449
▁Voigt	-11.5449
▁accident	-11.5449
▁alphabet	-11.5449
▁altogether	-11.5449
▁asymmetry	-11.5449
▁binding	-11.5449
▁caveat	-11.5449
▁censorship	-11.5449
▁chromodynamics	-11.5449
▁clerk	-11.5449
▁cluster	-11.5449
▁configuration	-11.5449
▁crackpot	-11.5449
▁credit	-11.5449
▁demonstration	-11.5449
▁deserve	-11.5449
▁dismiss	-11.5449
▁dominance	-11.5449
▁editor	-11.5449
▁embodie	-11.5449
▁exciting	-11.5449
▁extremum	-11.5449
▁families	-11.5449
▁fancier	-11.5449
▁fortiori	-11.5449
▁genius	-11.5449
▁gravitating	-11.5449
▁guiding	-11.5449
▁hemisphere	-11.5449
▁incredibl	-11.5449
▁ingredient	-11.5449
▁invisible	-11.5449
▁layperson	-11.5449
▁leptogenesis	-11.5449
▁microstates	-11.5449
▁multipole	-11.5449
▁m⃗a	-11.5449
▁osculating	-11.5449
▁perspective	-11.5449
▁qualities	-11.5449
▁recommend	-11.5449
▁recruit	-11.5449
▁repulsive	-11.5449
▁sloppy	-11.5449
▁specifies	-11.5449
▁spontaneous	-11.5449
▁superscript	-11.5449
▁support	-11.5449
▁teleological	-11.5449
▁temporarily	-11.5449
▁terrestrial	-11.5449
▁transparent	-11.5449
▁whiskey	-11.5449
▁worried	-11.5449
▁worse	-11.5449
miracle	-11.5449
▁Besides	-11.5449
▁Roger	-11.5449
▁States	-11.5449
▁ensure	-11.5449
▁precision	-11.5449
▁regular	-11.5449
▁transfer	-11.5449
▁⃗a	-11.5449
nterferomet	-11.5449
▁Dvali	-11.5449
▁dustbin	-11.5449
▁safety	-11.5449
▁⃗z	-11.5449
▁(46)	-11.5449
▁(61)	-11.545
▁daughter	-11.545
▁fusion	-11.545
▁wife	-11.545
Stokes	-11.545
▁film	-11.545
▁advent	-11.545
▁lift	-11.545
▁656;	-11.545
▁breath	-11.545
▁dogma	-11.545
▁proving	-11.545
▁revisi	-11.545
▁dinner	-11.545
mystical	-11.545
▁Prove	-11.545
▁warned	-11.545
▁(51)	-11.545
▁automatically	-11.545
▁646	-11.545
▁cosmos	-11.545
▁feeble	-11.545
▁536	-11.545
▁dawn	-11.545
▁imposing	-11.545
▁606	-11.545
▁Tower	-11.545
▁burn	-11.545
▁picturesque	-11.545
▁glue	-11.545
▁viwj	-11.545
▁Review	-11.545
▁mapping	-11.545
▁spike	-11.545
▁plates	-11.545
▁rank	-11.545
▁irre	-11.545
Gordon	-11.545
▁painful	-11.545
▁converge	-11.545
▁535	-11.545
▁(50)	-11.545
▁Pisa	-11.545
▁fingers	-11.545
▁230;	-11.545
▁333;	-11.545
▁horr	-11.545
▁Become	-11.545
▁dissipative	-11.545
▁spinning	-11.545
spread	-11.545
▁Assum	-11.545
▁Draw	-11.545
▁swim	-11.5451
▁gradua	-11.5451
▁digression	-11.5451
▁begging	-11.5451
22,11	-11.5451
▁examine	-11.5451
ribe	-11.5451
▁spot	-11.5451
▁Forces	-11.5451
▁ignorance	-11.5451
▁Crunch	-11.5451
▁invention	-11.5451
▁sweat	-11.5452
▁724	-11.5452
▁332;	-11.5452
▁submit	-11.5452
▁459;	-11.5452
quis	-11.5452
▁60;	-11.5452
▁430	-11.5452
▁route	-11.5453
▁hotter	-11.5453
▁734;	-11.5453
▁continuity	-11.5453
▁normalized	-11.5453
planar	-11.5453
▁117;	-11.5453
ematic	-11.5453
▁publication	-11.5454
▁cleaner	-11.5454
▁react	-11.5454
▁shak	-11.5454
▁696–	-11.5454
▁254	-11.5454
▁intentional	-11.5454
▁Pythagor	-11.5455
▁virtue	-11.5455
▁concentrated	-11.5455
▁duality	-11.5455
▁Spr	-11.5456
▁10−3	-11.5456
▁Institute	-11.5456
|,0|	-11.5457
▁2007	-11.5458
ηρσ	-11.5458
▁father	-11.5459
.6.7)	-11.546
▁punctured	-11.546
▁Jean	-11.546
▁forcefully	-11.5461
▁mother	-11.5461
▁Steve	-11.5461
▁504	-11.5461
▁continuation	-11.5462
▁Regarding	-11.5462
▁excluded	-11.5462
▁Δ	-11.5462
▁cities	-11.5464
everal	-11.5464
▁347	-11.5464
▁indispensable	-11.5464
▁secretly	-11.5465
▁639	-11.5466
▁508	-11.5466
▁̃Rij	-11.5466
▁γαβ	-11.5466
▁5–6	-11.5467
▁626	-11.5467
▁flight	-11.547
▁Lanczos	-11.5471
▁228	-11.5471
▁695	-11.5471
▁Maxwellian	-11.5472
▁362;	-11.5473
▁465	-11.5474
▁denser	-11.5478
▁bold	-11.5478
▁505	-11.548
▁144;	-11.5484
▁429	-11.5484
iEt	-11.5486
pointing	-11.5486
▁attain	-11.5486
▁objection	-11.5487
▁bothered	-11.5488
▁neglected	-11.5488
▁setup	-11.5489
▁cutting	-11.549
▁defi	-11.549
▁295	-11.549
▁305	-11.5492
▁717;	-11.5492
▁437	-11.5492
▁disguised	-11.5493
▁766;	-11.5493
▁lay	-11.5493
▁&	-11.5496
▁gli	-11.5496
▁dome	-11.5496
▁increasingly	-11.5497
▁electrostatics	-11.5497
▁613	-11.5499
▁382;	-11.5499
▁764;	-11.5499
▁globally	-11.5499
▁linearity	-11.5501
▁mir	-11.5501
▁furthermore	-11.5502
▁159;	-11.5504
▁375	-11.5504
▁sec	-11.5504
▁ημρ	-11.5504
▁mine	-11.5505
▁521	-11.5505
There	-11.5505
▁210;	-11.5507
▁563;	-11.5507
▁704;	-11.5507
▁120;	-11.5507
otted	-11.5509
▁̈A	-11.551
▁cup	-11.5513
3/3	-11.5514
▁engineer	-11.5514
▁454	-11.5515
▁270	-11.5516
1212	-11.5517
▁̇f	-11.5518
▁113;	-11.5521
▁pay	-11.5521
▁rolling	-11.5522
▁166;	-11.5522
▁deeply	-11.5523
Sparticles	-11.5523
▁causally	-11.5523
▁disappeared	-11.5525
▁usage	-11.5526
▁Cijk	-11.5527
▁Lase	-11.5528
▁passed	-11.5529
▁umin	-11.553
▁140;	-11.553
▁611	-11.5532
▁waving	-11.5535
vita	-11.5535
▁manages	-11.5536
▁137	-11.554
▁chi	-11.554
▁extending	-11.5541
▁observationally	-11.5543
▁220	-11.5543
▁499	-11.5545
oving	-11.5546
▁481	-11.5549
▁416	-11.5552
inted	-11.5552
Rab	-11.5555
▁exclaims	-11.5555
▁shrinks	-11.5555
▁comments	-11.5555
▁547	-11.5556
▁fee	-11.556
▁monopoles	-11.5568
▁miss	-11.5572
▁treating	-11.5573
▁enters	-11.5574
▁reached	-11.5585
▁461	-11.5587
▁49;	-11.5593
▁explaining	-11.5594
▁reminder	-11.5602
▁notably	-11.5603
▁nonsingular	-11.5609
▁spe	-11.5611
▁410	-11.5614
▁dense	-11.5614
▁land	-11.5614
▁traveling	-11.5631
▁cubed	-11.5634
▁Gen	-11.5634
▁699	-11.5648
▁559	-11.5667
▁fashion	-11.5673
▁absorbing	-11.5676
▁735	-11.5676
astic	-11.5677
▁104	-11.5679
▁classically	-11.5693
▁momenta	-11.5696
epid	-11.5706
▁minded	-11.5708
▁δρσ	-11.5708
▁̇t	-11.5713
▁Sha	-11.5714
116;	-11.572
▁mor	-11.5726
{(∂	-11.5794
▁340	-11.5803
▁115	-11.5818
arden	-11.5852
3,1	-11.5881
▁1963	-11.589
▁167	-11.5911
▁389	-11.5961
Goto	-11.5974
▁admire	-11.5997
▁519	-11.6007
▁415	-11.6008
setting	-11.6024
Amon	-11.6034
▁̈o	-11.6065
ltimately	-11.609
▁swe	-11.6164
rown	-11.6165
▁590	-11.6205
▁391	-11.6208
▁277	-11.6236
struc	-11.633
ssuredly	-11.6331
▁480	-11.6404
▁543	-11.6428
80;	-11.6445
–57	-11.647
▁̈X	-11.6481
▁345	-11.6508
384;	-11.6553
ube	-11.6598
▁585	-11.6662
▁arriv	-11.6663
▁Mathematic	-11.6702
▁bounc	-11.6732
64)	-11.6733
▁translat	-11.6744
▁315	-11.6813
serting	-11.6824
0123	-11.6845
finished	-11.6859
▁178	-11.688
▁eliminat	-11.6916
nting	-11.6927
▁Exp	-11.6977
▁originat	-11.6991
▁→−⃗	-11.6995
ranged	-11.7014
▁happi	-11.7038
▁Wil	-11.7053
▁imagin	-11.707
▁477	-11.7079
▁creat	-11.708
witt	-11.7103
▁351	-11.7121
▁periodic	-11.7141
▁⃗0	-11.7146
▁dash	-11.7188
▁Chang	-11.719
▁wit	-11.7205
▁mode	-11.7271
▁excess	-11.7293
pparently	-11.7311
lled	-11.7311
teraction	-11.7315
who	-11.7318
▁manage	-11.7322
)2/(	-11.7323
ncluding	-11.7329
▁collision	-11.7348
▁Wave	-11.735
▁simplifie	-11.7352
▁feat	-11.7354
matter	-11.7375
Louis	-11.7402
emitter	-11.7404
Jebsen	-11.7405
707	-11.7405
home	-11.7405
reaching	-11.7405
science	-11.7405
born	-11.7405
shell	-11.7406
accelerated	-11.7406
suppress	-11.7406
type	-11.7406
Newton	-11.7406
arXiv	-11.7406
dominated	-11.7406
famous	-11.7407
manifold	-11.7407
weak	-11.7407
exercise	-11.7407
radius	-11.7407
black	-11.7407
merely	-11.7407
▁346	-11.7408
▁787	-11.7409
AdS	-11.741
dropped	-11.7411
▁quantiz	-11.7411
▁motivate	-11.7412
usual	-11.7413
electric	-11.7413
▁constan	-11.7414
▁757	-11.7415
moon	-11.7415
Smatter	-11.7415
▁586	-11.7416
▁739	-11.7416
▁498	-11.7417
▁144	-11.7417
ISCO	-11.7417
mbling	-11.742
▁Expand	-11.742
will	-11.7424
new	-11.7425
▁manifest	-11.7425
▁545	-11.7426
large	-11.7428
state	-11.743
▁Ever	-11.743
ypically	-11.7432
bound	-11.7433
▁accurate	-11.7437
▁loose	-11.7437
▁eventual	-11.744
ηαβ	-11.7441
scape	-11.7442
lementary	-11.7442
▁zip	-11.7442
ontrast	-11.7443
ondition	-11.7443
▁design	-11.7443
rame	-11.7445
65–	-11.7445
tereographic	-11.7445
tationary	-11.7445
▁clean	-11.7446
cdxcdx	-11.7446
▁Johann	-11.7446
▁admit	-11.7446
▁influen	-11.7447
▁Mod	-11.7448
▁digress	-11.7448
▁Transform	-11.7448
▁triangula	-11.7449
▁achieve	-11.7449
convince	-11.7449
cogniz	-11.7449
⊙	-11.7449
▁displac	-11.7449
▁impoverish	-11.7449
▁machine	-11.7449
▁rediscover	-11.7449
gijGj	-11.7449
▁Frenet	-11.7449
▁Identify	-11.7449
▁adiabatic	-11.7449
▁distort	-11.7449
▁monotonic	-11.7449
▁paraphras	-11.7449
▁relabel	-11.7449
Accelerated	-11.7449
Fitzgerald	-11.7449
MNdXMdXN	-11.7449
Roughly	-11.7449
Silberstein	-11.7449
appetite	-11.7449
dovich	-11.7449
redundancy	-11.7449
⎡	-11.7449
⎣	-11.7449
⎤	-11.7449
⎦	-11.7449
▁(2010)	-11.7449
▁305–306	-11.7449
▁445–446	-11.7449
▁455–456	-11.7449
▁585–593	-11.7449
▁599–600	-11.7449
▁603;	-11.7449
▁691–69	-11.7449
▁719–72	-11.7449
▁71–73	-11.7449
▁735–736	-11.7449
▁739–740	-11.7449
▁745–746	-11.7449
▁763–764	-11.7449
▁91–92	-11.7449
▁Addison	-11.7449
▁Already	-11.7449
▁Aristotle	-11.7449
▁August	-11.7449
▁Combin	-11.7449
▁Company	-11.7449
▁DeWitt	-11.7449
▁Egregium	-11.7449
▁Galison	-11.7449
▁Interiors	-11.7449
▁Matthew	-11.7449
▁Murray	-11.7449
▁Napolitano	-11.7449
▁Object	-11.7449
▁Prelude	-11.7449
▁Stockholm	-11.7449
▁Sundrum	-11.7449
▁Theorema	-11.7449
▁Traveled	-11.7449
▁Wilhelm	-11.7449
▁William	-11.7449
▁Yukawa	-11.7449
▁academy	-11.7449
▁adequate	-11.7449
▁altitude	-11.7449
▁astronaut	-11.7449
▁astronomy	-11.7449
▁averaging	-11.7449
▁battle	-11.7449
▁caloric	-11.7449
▁caution	-11.7449
▁characterizing	-11.7449
▁chug	-11.7449
▁climbing	-11.7449
▁coincide	-11.7449
▁college	-11.7449
▁compactify	-11.7449
▁conference	-11.7449
▁confess	-11.7449
▁correlation	-11.7449
▁debris	-11.7449
▁degeneracy	-11.7449
▁descend	-11.7449
▁disagree	-11.7449
▁easiest	-11.7449
▁empirical	-11.7449
▁energetic	-11.7449
▁envisag	-11.7449
▁escaping	-11.7449
▁exclusively	-11.7449
▁fabulous	-11.7449
▁flame	-11.7449
▁gluing	-11.7449
▁hitherto	-11.7449
▁humongous	-11.7449
▁integrability	-11.7449
▁intelligen	-11.7449
▁interferometry	-11.7449
▁intertwine	-11.7449
▁investigat	-11.7449
▁journal	-11.7449
▁liberal	-11.7449
▁macroscopic	-11.7449
▁magnetism	-11.7449
▁metaphor	-11.7449
▁minimization	-11.7449
▁months	-11.7449
▁morph	-11.7449
▁mutual	-11.7449
▁narrow	-11.7449
▁necessity	-11.7449
▁outrageous	-11.7449
▁pheromone	-11.7449
▁photoelectric	-11.7449
▁photograph	-11.7449
▁polytopes	-11.7449
▁postulate	-11.7449
▁promoting	-11.7449
▁pulsar	-11.7449
▁replied	-11.7449
▁repulsion	-11.7449
▁rescue	-11.7449
▁saddle	-11.7449
▁satellite	-11.7449
▁scholar	-11.7449
▁scratch	-11.7449
▁sequence	-11.7449
▁shadow	-11.7449
▁slide	-11.7449
▁spectrum	-11.7449
▁supersymmetry	-11.7449
▁teeny	-11.7449
▁tetrahedra	-11.7449
▁tremendous	-11.7449
▁typographical	-11.7449
▁unexpected	-11.7449
▁unimodular	-11.7449
▁uninitiate	-11.7449
▁upstairs	-11.7449
▁venture	-11.7449
▁̄n	-11.7449
▁⃗S	-11.7449
▁⎢⎢	-11.7449
▁⎥⎥	-11.7449
Witten	-11.7449
▁Current	-11.7449
▁Grossmann	-11.7449
▁Natural	-11.7449
▁Thorne	-11.7449
▁Wigner	-11.7449
▁chron	-11.7449
▁company	-11.7449
▁dispute	-11.7449
▁email	-11.7449
▁eminent	-11.7449
▁explosive	-11.7449
▁optim	-11.7449
▁quality	-11.7449
▁service	-11.7449
▁unitarity	-11.7449
▁visible	-11.7449
▁woman	-11.7449
▁absent	-11.7449
▁afford	-11.7449
▁massaging	-11.7449
▁rigid	-11.7449
▁curving	-11.7449
▁flies	-11.7449
▁plagu	-11.7449
▁share	-11.7449
▁Construct	-11.745
▁evade	-11.745
–78	-11.745
▁commuting	-11.745
▁foam	-11.745
▁vision	-11.745
▁exposition	-11.745
▁Venus	-11.745
▁bomb	-11.745
▁̇αλα	-11.745
▁childhood	-11.745
▁court	-11.745
▁Porto	-11.745
▁team	-11.745
▁collid	-11.745
▁drift	-11.745
▁Loren	-11.745
▁reducible	-11.745
▁legitimate	-11.745
▁recount	-11.745
▁395;	-11.745
▁stern	-11.745
▁therefore	-11.745
▁rocketship	-11.745
▁splitting	-11.745
▁(70)	-11.745
▁exposure	-11.745
▁128;	-11.745
▁(63)	-11.745
▁98;	-11.745
Wesley	-11.745
▁744	-11.745
▁(57)	-11.745
▁Arno	-11.745
▁fruitful	-11.745
+∂+	-11.745
▁becoming	-11.745
▁gently	-11.745
▁laz	-11.745
▁spoke	-11.745
▁house	-11.745
σξν	-11.745
▁Mead	-11.745
▁symphony	-11.745
dinates	-11.745
▁entirety	-11.745
vants	-11.745
▁318;	-11.745
▁merge	-11.745
▁broad	-11.745
▁Bern	-11.745
▁philosophical	-11.745
▁310;	-11.745
▁Rmax	-11.745
ommittee	-11.745
▁duty	-11.7451
▁substantial	-11.7451
▁(193	-11.7451
▁mandated	-11.7451
▁⎟⎠=	-11.7451
▁123;	-11.7451
▁advice	-11.7451
▁wedge	-11.7451
ahl	-11.7451
▁mistaken	-11.7451
▁Need	-11.7451
▁Rhk	-11.7451
enja	-11.7452
▁price	-11.7452
▁rub	-11.7452
▁697;	-11.7452
▁catastrophe	-11.7452
▁fellow	-11.7452
▁eons	-11.7452
▁552;	-11.7452
▁exceptionally	-11.7452
▁317;	-11.7452
▁Bra	-11.7453
▁302;	-11.7453
▁overview	-11.7453
▁possess	-11.7453
▁61;	-11.7453
▁tossed	-11.7453
▁fair	-11.7453
▁Johannes	-11.7453
shut	-11.7453
▁verse	-11.7453
▁2003.	-11.7454
▁billi	-11.7454
▁delete	-11.7454
▁government	-11.7454
▁attention	-11.7454
▁begin	-11.7454
▁211;	-11.7454
▁erase	-11.7454
▁efficient	-11.7454
▁ABC	-11.7454
▁Hamilton	-11.7455
▁Hsu	-11.7455
▁logarithm	-11.7455
▁pace	-11.7455
acdxcdxb	-11.7455
▁evolving	-11.7455
▁transverse	-11.7455
▁lumino	-11.7455
▁1946	-11.7456
▁gap	-11.7456
▁colloquially	-11.7456
▁Act	-11.7457
ither	-11.7457
▁706	-11.7457
▁Emerge	-11.7458
▁532	-11.7458
▁analogies	-11.7459
▁prize	-11.7459
▁linearized	-11.7459
▁708	-11.7459
▁lock	-11.7461
▁equate	-11.7461
▁fortunately	-11.7462
rather	-11.7462
▁file	-11.7463
▁Stark	-11.7463
▁east	-11.7463
▁announce	-11.7463
vertible	-11.7464
Yau	-11.7465
▁sleep	-11.7465
▁Like	-11.7466
▁shorten	-11.7466
▁intended	-11.7466
▁listen	-11.7467
ωξσ	-11.7467
▁380;	-11.7467
ordial	-11.7468
Tlab	-11.7468
▁justified	-11.7469
Wait	-11.747
made	-11.747
▁decreed	-11.747
▁bitter	-11.7471
▁production	-11.7471
▁presentation	-11.7471
▁Zel	-11.7471
▁129	-11.7471
▁endless	-11.7473
▁423	-11.7474
▁attained	-11.7475
▁722	-11.7475
▁11–12	-11.7475
▁248	-11.7476
▁Henceforth	-11.7476
▁umax	-11.7476
ruth	-11.7476
Boh	-11.7477
▁Collecting	-11.7478
▁depicted	-11.7479
▁astonishingly	-11.748
▁328	-11.748
▁annihilated	-11.7481
▁respectable	-11.7481
▁396;	-11.7483
▁494	-11.7483
▁677;	-11.7483
▁533	-11.7483
▁hill	-11.7484
–35	-11.7484
▁ησρ	-11.7486
▁lapse	-11.7486
▁golden	-11.7486
▁motivated	-11.7487
Dropped	-11.7487
▁foot	-11.7487
▁Sgravity	-11.7488
▁ob	-11.7489
▁Brit	-11.7489
▁convey	-11.749
▁1935	-11.749
▁counter	-11.749
▁617	-11.7492
▁346;	-11.7492
▁traversed	-11.7493
▁733	-11.7494
▁1914	-11.7494
Newman	-11.7495
▁493	-11.7496
mall	-11.7496
▁Louis	-11.7497
▁694	-11.7497
▁enjoyed	-11.7497
▁performed	-11.7497
▁627;	-11.7498
▁̈ot	-11.7499
▁126	-11.7499
▁tively	-11.75
▁586;	-11.75
▁useless	-11.7501
▁701	-11.7502
▁504;	-11.7502
thetic	-11.7502
▁455;	-11.7504
▁767;	-11.7504
▁longest	-11.7505
▁545;	-11.7508
▁137;	-11.7508
▁tilting	-11.7508
▁eight	-11.7509
▁θφθ	-11.751
▁520;	-11.7511
▁748;	-11.7511
▁Fill	-11.7512
▁evolved	-11.7512
▁581	-11.7512
▁logically	-11.7513
▁skipp	-11.7514
▁amazingly	-11.7514
▁detected	-11.7516
▁building	-11.7516
▁obeying	-11.7516
tune	-11.7518
▁obscured	-11.7519
▁Sound	-11.752
▁continuing	-11.752
▁delayed	-11.752
▁nose	-11.7521
mission	-11.7522
▁579;	-11.7522
▁683;	-11.7524
▁751;	-11.7524
▁developing	-11.7524
▁ωαβ	-11.7528
▁553	-11.7529
▁359;	-11.753
316;	-11.7531
▁Fear	-11.7537
▁marking	-11.754
Throughout	-11.7542
▁Ken	-11.7542
off	-11.7543
▁571;	-11.7543
▁contributed	-11.7544
▁violated	-11.7545
▁appreciated	-11.7545
▁mastery	-11.7546
▁386;	-11.7547
feather	-11.7549
▁σρλ	-11.755
▁498;	-11.755
▁̃M	-11.755
▁curled	-11.7551
▁170	-11.7552
raditionally	-11.7557
alth	-11.7558
▁87	-11.7559
▁Adding	-11.7559
▁Birkhoff	-11.756
▁323	-11.7561
▁directed	-11.7566
finger	-11.7566
▁ερσ	-11.7567
▁̃W	-11.7571
▁235;	-11.7578
▁̇ρ	-11.7581
▁612	-11.7582
▁154	-11.7589
▁737	-11.76
▁excessive	-11.7608
▁Generalize	-11.7608
▁185;	-11.7626
▁∼10−	-11.7638
▁331	-11.764
minisc	-11.7661
–74	-11.7664
702;	-11.7671
dtdxi	-11.7701
▁reproduc	-11.7745
▁591	-11.7767
No	-11.7795
▁740	-11.7798
unge	-11.7813
wring	-11.7815
eady	-11.7928
netic	-11.793
▁grav	-11.7931
▁671	-11.7968
sses	-11.7997
▁Will	-11.8102
Planckian	-11.8107
▁teache	-11.8134
rior	-11.8318
▁513	-11.8404
▁comma	-11.8469
▁packag	-11.8489
rsion	-11.859
bid	-11.8612
▁ignor	-11.8613
etting	-11.8627
dxidxi	-11.8695
▁171	-11.8713
▁substitute	-11.8923
lower	-11.8989
▁admir	-11.9148
▁MPl	-11.9169
▁Gra	-11.9486
nrenormalizable	-11.9557
▁388	-11.9581
conception	-11.9672
457	-11.9728
load	-11.9744
dependent	-11.9771
metrical	-11.9788
current	-11.9802
pplications	-11.9804
cerning	-11.9827
umping	-11.9831
▁Through	-11.9833
analog	-11.9833
▁343	-11.9842
▁lecture	-11.9847
▁speculation	-11.9848
▁engine	-11.9849
▁cosmologist	-11.9851
otic	-11.9863
▁topic	-11.9867
nalogous	-11.9886
▁govern	-11.9893
▁Mathemati	-11.9895
ology	-11.9898
name	-11.9902
lapse	-11.9902
foot	-11.9903
golden	-11.9903
θφθ	-11.9904
Misner	-11.9904
natural	-11.9905
naked	-11.9905
receiver	-11.9905
delay	-11.9906
Deser	-11.9906
traceless	-11.9906
except	-11.9907
shift	-11.9907
indicated	-11.9907
Physics	-11.9907
physics	-11.9907
First	-11.9907
≃	-11.9907
perhaps	-11.9907
classical	-11.9907
effect	-11.9907
important	-11.9907
Euclidean	-11.9907
again	-11.9907
distance	-11.9907
upper	-11.9907
universe	-11.9907
fixed	-11.9907
Minkowskian	-11.9907
From	-11.9907
Thus	-11.9907
Confusio	-11.9908
two	-11.9908
rotation	-11.9909
outside	-11.9909
ussian	-11.9909
step	-11.9909
Weyl	-11.9909
written	-11.9912
axes	-11.9913
▁relevan	-11.9914
aint	-11.9915
▁annihilate	-11.9916
▁conserve	-11.9916
▁assure	-11.9916
▁Contract	-11.9917
▁scatter	-11.9918
ecombination	-11.9918
▁Observe	-11.9921
▁Collect	-11.9923
moving	-11.9924
▁confront	-11.9928
:090	-11.9929
▁exclud	-11.9929
▁sens	-11.993
ember	-11.9931
▁396	-11.9931
aught	-11.9932
▁condens	-11.9934
▁627	-11.9934
ημρ	-11.9936
roper	-11.9936
▁sudden	-11.9938
ritten	-11.9941
▁electromag	-11.9943
yperbolic	-11.9944
tudents	-11.9945
owadays	-11.9945
veryday	-11.9945
▁multiplicati	-11.9947
▁thro	-11.9947
treet	-11.9947
▁Translat	-11.9948
▁dissipat	-11.9948
▁acquaint	-11.9949
▁fruit	-11.9949
utiful	-11.9949
supplement	-11.9949
▁Wood	-11.9949
▁blink	-11.9949
▁clamor	-11.9949
▁declar	-11.9949
▁drudge	-11.9949
▁survey	-11.9949
▁whet	-11.9949
▁Repeat	-11.9949
▁belabor	-11.9949
*	-11.9949
Bonnet	-11.9949
`	-11.9949
abilis	-11.9949
applicable	-11.9949
coordinatization	-11.9949
eometrodynamics	-11.9949
hierarchy	-11.9949
ibliograph	-11.9949
ilateral	-11.9949
ipole	-11.9949
isomorphic	-11.9949
mundane	-11.9949
naccountably	-11.9949
perturbed	-11.9949
⎯	-11.9949
▁104–105	-11.9949
▁14–15;	-11.9949
▁242–243	-11.9949
▁26–27;	-11.9949
▁304–307	-11.9949
▁306–307	-11.9949
▁365–366	-11.9949
▁371–372	-11.9949
▁373–374	-11.9949
▁410–411	-11.9949
▁44–45	-11.9949
▁482–483	-11.9949
▁492–493	-11.9949
▁493–494	-11.9949
▁509–510	-11.9949
▁516–517	-11.9949
▁517–518	-11.9949
▁693–694	-11.9949
▁716–71	-11.9949
▁747–748	-11.9949
▁753–754	-11.9949
▁755–756	-11.9949
▁756–757;	-11.9949
▁78–79	-11.9949
▁Abraham	-11.9949
▁Aharon	-11.9949
▁Baierlein	-11.9949
▁Bernhard	-11.9949
▁Beware	-11.9949
▁Bodies	-11.9949
▁Conference	-11.9949
▁Contents	-11.9949
▁Differentiate	-11.9949
▁Emmy	-11.9949
▁England	-11.9949
▁Foundations	-11.9949
▁Franklin	-11.9949
▁Galilei	-11.9949
▁Gottfried	-11.9949
▁Harrison	-11.9949
▁Headaches	-11.9949
▁Heaviside	-11.9949
▁Josh	-11.9949
▁Kraichnan	-11.9949
▁Landau	-11.9949
▁Leiden	-11.9949
▁Leonhard	-11.9949
▁Maldacena	-11.9949
▁Marcel	-11.9949
▁Norton	-11.9949
▁Observatory	-11.9949
▁Penzias	-11.9949
▁Pioneer	-11.9949
▁Principia	-11.9949
▁Provide	-11.9949
▁Theodor	-11.9949
▁Verrier	-11.9949
▁Visser	-11.9949
▁Volovik	-11.9949
▁Weingarten	-11.9949
▁Zeitschrift	-11.9949
▁aapple	-11.9949
▁abecedarian	-11.9949
▁advocate	-11.9949
▁afflicted	-11.9949
▁anomaly	-11.9949
▁anticommutation	-11.9949
▁anticommuting	-11.9949
▁antineutrino	-11.9949
▁apocryphal	-11.9949
▁associating	-11.9949
▁astrophysics	-11.9949
▁barrier	-11.9949
▁beloved	-11.9949
▁bottle	-11.9949
▁category	-11.9949
▁celebrity	-11.9949
▁centimeter	-11.9949
▁cliff	-11.9949
▁clothed	-11.9949
▁companion	-11.9949
▁comprehensible	-11.9949
▁comprise	-11.9949
▁compromise	-11.9949
▁concrete	-11.9949
▁confiden	-11.9949
▁cumbersome	-11.9949
▁curiosity	-11.9949
▁deprive	-11.9949
▁dictum	-11.9949
▁disorder	-11.9949
▁dispense	-11.9949
▁drastically	-11.9949
▁elephant	-11.9949
▁elevator	-11.9949
▁exaggeration	-11.9949
▁exploded	-11.9949
▁football	-11.9949
▁generating	-11.9949
▁hitchhiker	-11.9949
▁impossibility	-11.9949
▁instantaneously	-11.9949
▁isomorphism	-11.9949
▁legacy	-11.9949
▁leisure	-11.9949
▁macrostate	-11.9949
▁mandates	-11.9949
▁manufacturer	-11.9949
▁manuscript	-11.9949
▁monographs	-11.9949
▁operate	-11.9949
▁orbifold	-11.9949
▁organize	-11.9949
▁pendulum	-11.9949
▁perimeter	-11.9949
▁pilot	-11.9949
▁polite	-11.9949
▁polygon	-11.9949
▁polyhedr	-11.9949
▁polynomial	-11.9949
▁prank	-11.9949
▁precesses	-11.9949
▁prepare	-11.9949
▁proudly	-11.9949
▁pulsation	-11.9949
▁rectilinear	-11.9949
▁released	-11.9949
▁reluctan	-11.9949
▁rescale	-11.9949
▁reversible	-11.9949
▁roam	-11.9949
▁scandal	-11.9949
▁schema	-11.9949
▁scientists	-11.9949
▁sleeves	-11.9949
▁soldiers	-11.9949
▁superficially	-11.9949
▁supply	-11.9949
▁suspicion	-11.9949
▁tantalizing	-11.9949
▁thorough	-11.9949
▁trihedron	-11.9949
▁unavoidable	-11.9949
▁vibrating	-11.9949
▁wisdom	-11.9949
▁woodcutter	-11.9949
▁́Elie	-11.9949
▁νρμξσ	-11.9949
▁⃗ζ	-11.9949
Bergmann	-11.9949
▁Geometrical	-11.9949
▁Hartle	-11.9949
▁Horowitz	-11.9949
▁Seffective	-11.9949
▁acronym	-11.9949
▁carbon	-11.9949
▁conspiracy	-11.9949
▁financ	-11.9949
▁generous	-11.9949
▁lunch	-11.9949
▁orientation	-11.9949
▁overlap	-11.9949
▁pentagon	-11.9949
▁scheme	-11.9949
▁stroke	-11.9949
▁succeed	-11.9949
▁tidbit	-11.9949
▁verification	-11.9949
culty	-11.9949
stronomical	-11.9949
▁49–51	-11.9949
▁Argu	-11.9949
▁Denken	-11.9949
▁Gerard	-11.9949
▁accompan	-11.9949
▁collaborators	-11.9949
▁copies	-11.9949
▁deletion	-11.9949
▁skill	-11.9949
▁sloppily	-11.9949
▁tennis	-11.9949
▁zoom	-11.9949
43–44	-11.9949
▁Arnold	-11.995
▁Naively	-11.995
▁Paper	-11.995
▁cheat	-11.995
▁shout	-11.995
Greenwich	-11.995
–246	-11.995
▁Henry	-11.995
▁Paris	-11.995
▁attributed	-11.995
▁cinch	-11.995
▁colony	-11.995
▁reputa	-11.995
▁strap	-11.995
▁superior	-11.995
▁composition	-11.995
Exactly	-11.995
▁coordi	-11.995
▁mentum	-11.995
▁spectac	-11.995
▁596	-11.995
▁cancellation	-11.995
▁foolproof	-11.995
▁professional	-11.995
▁yoked	-11.995
▁Honor	-11.995
▁delighted	-11.995
▁superposition	-11.995
lSkl	-11.995
▁army	-11.995
▁glance	-11.995
LISA	-11.995
▁visitors	-11.995
▁differentiable	-11.995
▁merits	-11.995
▁welcome	-11.995
transextremal	-11.995
▁debate	-11.995
▁(74)	-11.995
▁Comm	-11.995
▁mumble	-11.995
Serret	-11.995
▁emergent	-11.995
▁344,	-11.995
▁Life	-11.995
▁647	-11.995
▁CMB	-11.995
▁contem	-11.995
arranging	-11.995
▁harm	-11.995
▁varied	-11.995
▁(60)	-11.995
▁minor	-11.995
▁trap	-11.995
▁46–48	-11.995
Wash	-11.995
▁Depend	-11.995
▁entertain	-11.995
▁Amazingly	-11.995
▁dBC	-11.995
▁56–57	-11.995
5–52	-11.995
▁2008.	-11.995
▁acquaintance	-11.995
▁complication	-11.995
▁logarithmically	-11.995
▁pioneer	-11.995
▁vain	-11.995
▁Break	-11.995
▁Peter	-11.995
▁(185	-11.995
▁align	-11.995
▁(53)	-11.995
▁448	-11.995
▁revert	-11.995
▁Born	-11.995
▁capture	-11.995
▁remed	-11.995
▁baryogenesis	-11.995
▁butterflies	-11.995
▁mistak	-11.9951
▁persistent	-11.9951
▁fond	-11.9951
alizing	-11.9951
▁causation	-11.9951
▁technicalities	-11.9951
▁funding	-11.9951
▁subspace	-11.9951
▁expos	-11.9951
▁348	-11.9951
ulos	-11.9951
▁tenure	-11.9951
−∂−	-11.9951
.1.11)	-11.9951
▁(62)	-11.9951
▁March	-11.9951
▁nontensor	-11.9951
▁hasten	-11.9951
▁meson	-11.9951
▁boring	-11.9951
▁compositeness	-11.9951
▁accuse	-11.9951
▁597	-11.9951
▁′′/	-11.9951
▁shortcut	-11.9951
▁Carter	-11.9952
▁unnatural	-11.9952
▁353	-11.9952
▁dissociate	-11.9952
▁adyk	-11.9952
hoosh	-11.9952
▁402;	-11.9952
▁minimizing	-11.9952
▁cruis	-11.9953
entioned	-11.9953
▁preliminary	-11.9953
dated	-11.9953
▁meaningful	-11.9953
▁magician	-11.9953
▁166	-11.9953
ltrarelativistic	-11.9953
▁ridge	-11.9953
▁multiplication	-11.9953
▁bump	-11.9953
▁MeV	-11.9953
▁weird	-11.9954
▁resembl	-11.9954
▁341	-11.9954
▁nowadays	-11.9954
shot	-11.9954
▁illusion	-11.9954
.5.14)	-11.9954
▁(72)	-11.9954
▁Scala	-11.9955
▁±∞	-11.9955
▁insistence	-11.9955
▁attractor	-11.9955
▁promptly	-11.9955
▁suggestive	-11.9955
pdf	-11.9956
▁heuristically	-11.9956
▁counterintuitiv	-11.9956
▁nonlinearity	-11.9956
boggl	-11.9956
ceful	-11.9957
opefully	-11.9957
▁beast	-11.9959
▁authority	-11.9959
▁laboriously	-11.9959
▁qualitatively	-11.9959
PPN	-11.9959
▁featureless	-11.9959
▁524	-11.996
▁349	-11.996
▁tree	-11.9962
▁gyy	-11.9962
▁jargon	-11.9963
▁manner	-11.9963
▁(55)	-11.9964
▁hide	-11.9964
▁alternate	-11.9964
▁Read	-11.9964
▁technology	-11.9964
ptic	-11.9964
▁accomplished	-11.9965
▁impressed	-11.9965
pervading	-11.9965
▁1996	-11.9966
▁Excellent	-11.9966
▁2012,	-11.9966
Zeit	-11.9967
ension	-11.9967
▁1911,	-11.9967
▁Choos	-11.9968
▁confronted	-11.9971
▁reco	-11.9971
▁266	-11.9972
▁watches	-11.9972
▁laid	-11.9973
▁1917	-11.9973
▁710	-11.9974
▁spell	-11.9974
memor	-11.9974
▁767–	-11.9974
ηνρ	-11.9974
▁coor	-11.9975
▁705	-11.9975
▁εξμ	-11.9975
▁justification	-11.9976
▁writers	-11.9976
▁office	-11.9976
▁1927	-11.9976
ijkJ	-11.9978
evolutionary	-11.9979
▁558	-11.9979
▁restless	-11.998
▁tional	-11.998
▁398	-11.998
▁quicker	-11.9981
hings	-11.9981
▁specifically	-11.9982
▁1016	-11.9984
▁658	-11.9986
Aji	-11.9988
▁commit	-11.9989
.1.13	-11.9996
▁diagonalize	-11.9999
–48	-12.0001
▁merc	-12.0006
▁Franc	-12.001
2005)	-12.0015
58)	-12.0029
philosophic	-12.003
▁formalize	-12.003
▁oscillate	-12.0033
364;	-12.0034
ntil	-12.0036
▁conclud	-12.0055
▁prim	-12.0062
phenomenological	-12.0065
▁(191	-12.0074
.5.10	-12.0075
▁conse	-12.0114
review	-12.014
host	-12.015
ripped	-12.0158
observable	-12.0161
▁507	-12.0212
▁399	-12.0224
trian	-12.0249
▁triumphant	-12.0258
stock	-12.0309
rudi	-12.034
709;	-12.0376
gijdxidxj	-12.042
▁provid	-12.0476
triguingly	-12.0494
▁287	-12.0511
2010,	-12.0516
blis	-12.0577
▁329	-12.0653
▁753	-12.0804
portion	-12.088
▁466	-12.0999
▁substitut	-12.1092
▁medi	-12.1094
ained	-12.1115
▁speculat	-12.1144
▁sti	-12.1174
▁Hou	-12.1197
▁computational	-12.1387
▁caus	-12.1446
rod	-12.1464
signed	-12.1476
leged	-12.1502
sional	-12.1624
▁673	-12.1726
▁localize	-12.1922
▁propor	-12.2138
▁interchang	-12.2156
2(∂1	-12.2158
eep	-12.2159
▁unnecessar	-12.2203
ejected	-12.2292
▁575	-12.2456
uriously	-12.2515
▁indulg	-12.2563
▁indirect	-12.2583
1963)	-12.2704
▁observ	-12.2879
▁cycl	-12.288
glk	-12.2915
view	-12.2916
capabl	-12.2921
cule	-12.2947
▁Christ	-12.2979
▁Class	-12.3047
▁impe	-12.3066
▁pictur	-12.3079
writer	-12.3083
76)	-12.3088
cross	-12.3101
ycho	-12.3109
▁relativist	-12.3111
pplied	-12.3117
lves	-12.3129
elebration	-12.3143
▁tradition	-12.315
product	-12.3172
▁electrostatic	-12.3179
metric	-12.3183
Simon	-12.3183
▁decade	-12.3184
▁Particle	-12.3185
▁thermodynamic	-12.3186
▁Supp	-12.3193
orrespondingly	-12.3202
Maxwell	-12.3211
▁measur	-12.3211
▁fro	-12.3229
▁recurren	-12.3232
formation	-12.3234
ecompose	-12.3235
Henceforth	-12.3236
irect	-12.3237
momenta	-12.3237
Lanczos	-12.3237
dimension	-12.3237
Freeman	-12.3237
Readers	-12.3237
antiparticle	-12.3237
escribe	-12.3238
circumference	-12.3238
established	-12.3239
pseudo	-12.3239
integrated	-12.3239
antimatter	-12.3239
umax	-12.3239
682;	-12.324
perpendicular	-12.324
attractive	-12.324
walk	-12.324
John	-12.324
nuclear	-12.324
Laplace	-12.324
phenomenon	-12.324
outgoing	-12.324
consistent	-12.324
describing	-12.324
acceleration	-12.324
compare	-12.324
remember	-12.324
topological	-12.324
Dirac	-12.324
Nature	-12.324
Quantum	-12.324
appropriate	-12.324
observed	-12.324
proton	-12.324
studying	-12.324
corresponds	-12.324
relevant	-12.324
Again	-12.324
Another	-12.324
corresponding	-12.324
paradox	-12.324
parameter	-12.324
▁677	-12.324
cosmic	-12.324
spherical	-12.324
direction	-12.324
world	-12.324
true	-12.324
Gravity	-12.3241
surface	-12.3241
curved	-12.3241
Lorentz	-12.3241
coordinate	-12.3241
After	-12.3241
indeed	-12.3241
back	-12.3241
half	-12.3241
▁revolution	-12.3241
given	-12.3242
▁reduc	-12.3243
▁615	-12.3243
▁believ	-12.3245
▁decree	-12.3246
making	-12.3246
▁(196	-12.3247
plus	-12.3247
▁presume	-12.3247
▁respec	-12.3247
▁devote	-12.3247
▁excite	-12.3248
▁parametrize	-12.3248
▁locate	-12.3249
▁astonish	-12.3249
▁unify	-12.325
igorous	-12.3252
eturn	-12.3252
7–9	-12.3252
tween	-12.3253
ship	-12.3254
▁Cho	-12.3257
nounce	-12.3258
▁174–1	-12.3258
1–12	-12.3259
▁impress	-12.326
▁molecul	-12.3261
▁accomplish	-12.3262
▁technolog	-12.3262
bru	-12.3262
▁controvers	-12.3263
▁Evaluat	-12.3264
768	-12.3265
▁perva	-12.3266
icles	-12.3268
ublished	-12.3269
recession	-12.3269
erfect	-12.3269
▁qualitative	-12.327
▁definite	-12.327
▁rough	-12.3271
▁alleged	-12.3271
▁laborious	-12.3272
wave	-12.3274
duced	-12.3274
quivalently	-12.3275
einberg	-12.3275
ondensed	-12.3276
xtend	-12.3276
oupling	-12.3276
▁extrema	-12.3277
unction	-12.3277
ntrinsic	-12.3277
llusion	-12.3278
quired	-12.3279
tatic	-12.3279
▁Conver	-12.3279
hether	-12.328
uffice	-12.328
eginning	-12.328
▁exhausti	-12.328
▁viol	-12.3281
▁rectang	-12.3281
▁situat	-12.3282
▁persist	-12.3282
▁Concept	-12.3282
clusion	-12.3282
▁conserva	-12.3282
▁marvel	-12.3282
▁quoti	-12.3282
▁Amaz	-12.3282
hood	-12.3282
logue	-12.3283
▁succ	-12.3283
εμνψω	-12.3283
▁bewilder	-12.3283
economiz	-12.3283
proclaim	-12.3283
▁669,600,0	-12.3283
▁Extremiz	-12.3283
▁Japan	-12.3283
▁Philosoph	-12.3283
▁excis	-12.3283
▁nonconserv	-12.3283
▁repackag	-12.3283
.10.43).	-12.3283
Curbastro	-12.3283
Experimental	-12.3283
Gregorio	-12.3283
Textbooks	-12.3283
cknowledge	-12.3283
club	-12.3283
corpuscle	-12.3283
counterclockwise	-12.3283
dreibein	-12.3283
frequent	-12.3283
gijDyiDyj	-12.3283
gijdyidyj	-12.3283
gnific	-12.3283
iscretization	-12.3283
itpickers	-12.3283
nconsistency	-12.3283
quisite	-12.3283
squeezing	-12.3283
tivistic	-12.3283
uperconductivity	-12.3283
©	-12.3283
ø	-12.3283
▁(1869–195	-12.3283
▁113–123	-12.3283
▁162–163	-12.3283
▁17–19,	-12.3283
▁207–217	-12.3283
▁250–251	-12.3283
▁258–259	-12.3283
▁269–270	-12.3283
▁275–276	-12.3283
▁280–283	-12.3283
▁290–292	-12.3283
▁293–294	-12.3283
▁307–309	-12.3283
▁310–311	-12.3283
▁347–348	-12.3283
▁363–364;	-12.3283
▁366–367	-12.3283
▁400–405	-12.3283
▁401–402	-12.3283
▁416–417	-12.3283
▁427–429	-12.3283
▁432–433	-12.3283
▁436–438	-12.3283
▁446–447	-12.3283
▁447–448	-12.3283
▁448–449	-12.3283
▁465–466	-12.3283
▁470–471	-12.3283
▁472–473;	-12.3283
▁490–491	-12.3283
▁508–509	-12.3283
▁521–522	-12.3283
▁522–523	-12.3283
▁525–526	-12.3283
▁526–528	-12.3283
▁53–54	-12.3283
▁580–581;	-12.3283
▁604–605	-12.3283
▁64–65	-12.3283
▁653–654	-12.3283
▁659–660	-12.3283
▁690–691	-12.3283
▁714–715	-12.3283
▁723–725	-12.3283
▁749–750	-12.3283
▁750–751	-12.3283
▁752–753;	-12.3283
▁Bartusiak	-12.3283
▁BenTov	-12.3283
▁Cheng	-12.3283
▁Chief	-12.3283
▁China	-12.3283
▁Congress	-12.3283
▁Connect	-12.3283
▁Copernican	-12.3283
▁Cosmicomics	-12.3283
▁Crimea	-12.3283
▁Dimensional	-12.3283
▁Empire	-12.3283
▁Explicit	-12.3283
▁Fluid	-12.3283
▁Freund	-12.3283
▁Goldberger	-12.3283
▁Grassmann	-12.3283
▁Grimm	-12.3283
▁Group	-12.3283
▁Gunnar	-12.3283
▁Gupta	-12.3283
▁Gustav	-12.3283
▁Gyroscopes	-12.3283
▁Harvard	-12.3283
▁Henri	-12.3283
▁Integral	-12.3283
▁Israel	-12.3283
▁Julius	-12.3283
▁Kornel	-12.3283
▁Krupp	-12.3283
▁Larmor	-12.3283
▁Lifschitz	-12.3283
▁Oskar	-12.3283
▁Pascual	-12.3283
▁Peierls	-12.3283
▁Qfwfq	-12.3283
▁Recover	-12.3283
▁Rosenfeld	-12.3283
▁Schwarz	-12.3283
▁Scott	-12.3283
▁Shapiro	-12.3283
▁Soviet	-12.3283
▁Stachel	-12.3283
▁Strange	-12.3283
▁Technology	-12.3283
▁Theorists	-12.3283
▁Thoreau	-12.3283
▁Tinseau	-12.3283
▁Urbain	-12.3283
▁Wiltshire	-12.3283
▁anonymous	-12.3283
▁anticommute	-12.3283
▁antipodal	-12.3283
▁antisymmetriz	-12.3283
▁architect	-12.3283
▁arrogant	-12.3283
▁articulated	-12.3283
▁association	-12.3283
▁autobiography	-12.3283
▁befuddle	-12.3283
▁biologist	-12.3283
▁borrow	-12.3283
▁budget	-12.3283
▁centuries	-12.3283
▁champion	-12.3283
▁cherished	-12.3283
▁clockwise	-12.3283
▁clunk	-12.3283
▁cognoscenti	-12.3283
▁conceive	-12.3283
▁conservative	-12.3283
▁consult	-12.3283
▁contemporaries	-12.3283
▁conversation	-12.3283
▁convincing	-12.3283
▁crawl	-12.3283
▁crime	-12.3283
▁criterion	-12.3283
▁decelerate	-12.3283
▁decelerating	-12.3283
▁demonstrate	-12.3283
▁destination	-12.3283
▁discretize	-12.3283
▁disposal	-12.3283
▁distasteful	-12.3283
▁dpeipx	-12.3283
▁earnings	-12.3283
▁embarrass	-12.3283
▁encouragement	-12.3283
▁entanglement	-12.3283
▁enthusias	-12.3283
▁etymolog	-12.3283
▁evaluation	-12.3283
▁evaporat	-12.3283
▁exemplifie	-12.3283
▁exhortation	-12.3283
▁explosion	-12.3283
▁faith	-12.3283
▁freshman	-12.3283
▁gunfire	-12.3283
▁herself	-12.3283
▁hospital	-12.3283
▁hydrostatic	-12.3283
▁implement	-12.3283
▁incompressible	-12.3283
▁indepen	-12.3283
▁inevitable	-12.3283
▁inhomogeneous	-12.3283
▁insignificant	-12.3283
▁intricate	-12.3283
▁magazine	-12.3283
▁manufactured	-12.3283
▁marine	-12.3283
▁memoir	-12.3283
▁momentarily	-12.3283
▁muscles	-12.3283
▁nonperturbative	-12.3283
▁nonstandard	-12.3283
▁nudge	-12.3283
▁opportunity	-12.3283
▁pattern	-12.3283
▁pedagogy	-12.3283
▁perplex	-12.3283
▁planned	-12.3283
▁practitioner	-12.3283
▁prerequisite	-12.3283
▁promising	-12.3283
▁quack	-12.3283
▁quiescent	-12.3283
▁rapidity	-12.3283
▁reassure	-12.3283
▁reconcile	-12.3283
▁register	-12.3283
▁regret	-12.3283
▁relaxed	-12.3283
▁remnant	-12.3283
▁removal	-12.3283
▁renormalized	-12.3283
▁retreat	-12.3283
▁rewriting	-12.3283
▁routinely	-12.3283
▁sectors	-12.3283
▁sergeant	-12.3283
▁shatter	-12.3283
▁shoot	-12.3283
▁simultaneously	-12.3283
▁slam	-12.3283
▁snicker	-12.3283
▁sophistication	-12.3283
▁sponding	-12.3283
▁subdivision	-12.3283
▁supernova	-12.3283
▁suspend	-12.3283
▁swarm	-12.3283
▁swoop	-12.3283
▁tautochrone	-12.3283
▁terminates	-12.3283
▁thermocouples	-12.3283
▁thousand	-12.3283
▁thrust	-12.3283
▁tomorrow	-12.3283
▁unacceptabl	-12.3283
▁uncover	-12.3283
▁underlining	-12.3283
▁unitarization	-12.3283
▁unlock	-12.3283
▁utilitarian	-12.3283
▁valuable	-12.3283
▁vessel	-12.3283
▁vibration	-12.3283
▁vicinity	-12.3283
▁whisper	-12.3283
▁window	-12.3283
▁wondrous	-12.3283
▁wturn	-12.3283
▁yiyjT	-12.3283
▁̈ottingen	-12.3283
▁⃗C	-12.3283
▁≃1/137	-12.3283
Namely	-12.3283
▁(1882–19	-12.3283
▁(1885–195	-12.3283
▁166–1	-12.3283
▁attack	-12.3283
▁million	-12.3283
▁peripheral	-12.3283
▁studies	-12.3283
▁trembling	-12.3283
▁vacuo	-12.3283
quantitative	-12.3283
quipped	-12.3283
Λ	-12.3283
εδγεη	-12.3283
▁383–384	-12.3283
▁426–427	-12.3283
▁729–7	-12.3283
▁Brandenb	-12.3283
▁Oliver	-12.3283
▁True	-12.3283
▁airplane	-12.3283
▁banish	-12.3283
▁cartoon	-12.3283
▁dilute	-12.3283
▁draft	-12.3283
▁inhabit	-12.3283
▁mumbling	-12.3283
▁quasi	-12.3283
▁shine	-12.3283
▁supertwistors	-12.3283
▁unroll	-12.3283
Calvino	-12.3283
counterrotati	-12.3283
±∂±	-12.3283
▁(68)	-12.3283
▁84–85	-12.3283
▁Sinteraction	-12.3283
▁asylum	-12.3283
▁complexify	-12.3283
▁computing	-12.3283
▁fiction	-12.3283
▁formidable	-12.3283
▁music	-12.3283
▁punch	-12.3283
▁sharpened	-12.3283
▁smile	-12.3283
▁unrelated	-12.3283
▁width	-12.3283
LIGO	-12.3283
▁10–12	-12.3283
▁720;	-12.3283
▁arrest	-12.3283
▁chalk	-12.3283
▁department	-12.3283
▁penance	-12.3283
▁repel	-12.3283
▁revel	-12.3283
▁⟨12⟩4	-12.3283
∈	-12.3283
▁Cohen	-12.3283
▁Waller	-12.3283
▁hawk	-12.3283
▁hypot	-12.3283
▁luminosity	-12.3283
minister	-12.3283
▁bijecti	-12.3283
▁cracked	-12.3283
schman	-12.3283
▁Rijdxj	-12.3283
▁83–84	-12.3283
▁Besso	-12.3283
▁Karl	-12.3283
▁peace	-12.3283
▁Hooke	-12.3283
▁psychological	-12.3283
▁stack	-12.3283
▁679	-12.3283
▁Maps	-12.3283
▁retard	-12.3283
▁cabin	-12.3283
dPdQ	-12.3283
▁Contrar	-12.3283
▁committed	-12.3283
▁parable	-12.3283
Convinc	-12.3283
▁QED	-12.3283
▁747	-12.3283
▁Imposing	-12.3283
▁Tsai	-12.3283
▁grind	-12.3283
▁taste	-12.3283
–75	-12.3283
▁Yoni	-12.3283
▁honor	-12.3283
▁chemi	-12.3283
▁strive	-12.3283
▁Above	-12.3283
▁Halley	-12.3283
▁duration	-12.3283
▁complain	-12.3283
▁immens	-12.3283
educated	-12.3283
▁lament	-12.3283
.6.15)	-12.3283
▁axiom	-12.3283
ivity	-12.3283
▁inflict	-12.3283
▁widespread	-12.3283
▁Astrophys	-12.3283
▁prototypical	-12.3283
▁73–74	-12.3283
▁counterpart	-12.3283
▁achievements	-12.3283
▁excu	-12.3283
▁Guth	-12.3283
▁fydy	-12.3283
▁Edward	-12.3283
▁648	-12.3283
▁victor	-12.3283
zzing	-12.3283
▁560;	-12.3283
▁neat	-12.3283
▁341–34	-12.3283
▁Turn	-12.3283
▁depth	-12.3283
μνωψ	-12.3283
Raum	-12.3283
▁quoting	-12.3283
▁433;	-12.3283
▁cris	-12.3283
▁ελρμν	-12.3283
▁marvelous	-12.3284
▁revered	-12.3284
alph	-12.3284
▁1959.	-12.3284
▁occurring	-12.3284
▁Bernard	-12.3284
▁satisfaction	-12.3284
▁oscillation	-12.3284
▁rearrange	-12.3284
itons	-12.3284
▁counteract	-12.3284
▁twiddles	-12.3284
▁camera	-12.3284
.1.16)	-12.3284
opo	-12.3284
.2.13)	-12.3284
▁reconstruction	-12.3284
horn	-12.3284
▁unphysical	-12.3284
▁gydy	-12.3284
▁triangulation	-12.3284
▁477–4	-12.3285
▁removing	-12.3285
▁halt	-12.3285
▁Grace	-12.3285
.6.11)	-12.3285
▁Scale	-12.3285
▁Grail	-12.3285
▁Translation	-12.3285
▁Fine	-12.3285
▁entrance	-12.3285
▁rail	-12.3285
▁Path	-12.3285
▁Relativ	-12.3285
▁mask	-12.3285
2–13	-12.3285
▁exhaustion	-12.3286
μηρν	-12.3286
γεη	-12.3286
▁frontier	-12.3286
▁258	-12.3286
▁587;	-12.3286
avor	-12.3286
▁memoriz	-12.3286
▁eating	-12.3286
▁Dao	-12.3286
endous	-12.3287
▁percent	-12.3287
sewing	-12.3287
▁metry	-12.3287
▁spare	-12.3287
▁island	-12.3287
▁intense	-12.3288
▁reside	-12.3288
▁brightness	-12.3288
▁permeate	-12.3288
mbles	-12.3288
8–30	-12.3288
ikov	-12.3288
lucky	-12.3288
Explain	-12.3288
▁sweet	-12.3289
athematicians	-12.3289
▁Mind	-12.3289
▁stuck	-12.3289
▁monst	-12.3289
▁academically	-12.3289
▁brake	-12.329
▁629;	-12.329
▁poet	-12.3291
phone	-12.3291
▁steal	-12.3292
lmh	-12.3293
abelian	-12.3294
▁clarifi	-12.3296
YdY	-12.3297
trov	-12.3298
▁609	-12.3299
▁assembl	-12.3307
rland	-12.3307
▁busi	-12.3311
muni	-12.3324
▁Lui	-12.3327
egreg	-12.3327
pressed	-12.333
skim	-12.334
itty	-12.3342
ount	-12.335
260;	-12.3354
Everybody	-12.3368
▁Radia	-12.3369
rately	-12.3386
tuning	-12.339
ficient	-12.3391
mgq	-12.3397
▁inspir	-12.3404
itted	-12.3414
neutralize	-12.3424
retical	-12.3445
▁awful	-12.3456
volve	-12.3464
.26)	-12.3479
▁recurr	-12.3482
ogo	-12.35
▁glori	-12.3513
spill	-12.3545
▁param	-12.3576
cdxa	-12.3599
▁alternat	-12.363
omplexification	-12.3722
oblin	-12.3725
pants	-12.3762
RetS	-12.3835
fashionable	-12.3857
▁wonderful	-12.3884
479	-12.3928
artin	-12.3951
successive	-12.3961
directly	-12.3992
▁slip	-12.4032
kiRi	-12.4092
touched	-12.4134
drag	-12.4465
eriodically	-12.4743
▁conceivabl	-12.5197
▁435	-12.5271
▁525	-12.5514
ynamical	-12.5514
proven	-12.604
fashioned	-12.6712
mbini	-12.7204
▁Short	-12.7519
▁Different	-12.7549
spatially	-12.7655
singularity	-12.7694
▁challeng	-12.7809
petition	-12.7838
propos	-12.7873
rival	-12.7876
rmodynamics	-12.7903
▁Surpris	-12.7916
spire	-12.8029
▁Further	-12.8085
▁oscillat	-12.8091
llegedly	-12.8141
ternal	-12.8141
creases	-12.8142
▁diagonaliz	-12.818
▁geometer	-12.8181
▁Thank	-12.8184
▁minut	-12.8194
▁calculat	-12.8213
▁multiplie	-12.8222
→	-12.8222
short	-12.8224
semble	-12.8235
intended	-12.8237
Like	-12.8237
iffeomorphism	-12.8237
monopoles	-12.8237
Regarding	-12.8237
Δ	-12.8237
Arthur	-12.8238
Introduc	-12.8238
pushing	-12.8238
southern	-12.8238
stream	-12.8238
physical	-12.8238
Hermann	-12.8239
centrifugal	-12.8239
pretend	-12.8239
familiar	-12.8239
$	-12.8239
▁incident	-12.8239
efinition	-12.8239
Surely	-12.8239
hermitean	-12.8239
Jordan	-12.8239
henceforth	-12.8239
plausible	-12.8239
affine	-12.8239
imaginary	-12.8239
American	-12.824
Remember	-12.824
typical	-12.824
quantized	-12.824
longitude	-12.824
operation	-12.824
divide	-12.824
hidden	-12.824
solve	-12.824
▁contribut	-12.824
interested	-12.824
quantization	-12.824
raise	-12.824
proof	-12.824
fancy	-12.824
fluctuation	-12.824
Think	-12.824
Eddington	-12.824
historical	-12.824
primeval	-12.824
45◦	-12.824
inertial	-12.824
shape	-12.824
possibly	-12.824
suppose	-12.824
essential	-12.824
While	-12.824
century	-12.824
existence	-12.824
Evidently	-12.824
convenient	-12.8241
vielbein	-12.8241
speak	-12.8241
radial	-12.8241
mystery	-12.8241
Space	-12.8241
wrote	-12.8241
Penrose	-12.8241
Perhaps	-12.8241
defining	-12.8241
Relativity	-12.8241
correct	-12.8241
smaller	-12.8241
introduced	-12.8241
following	-12.8241
§	-12.8283
ß	-12.8283
⎧	-12.8283
⎨	-12.8283
⎩	-12.8283
⎫	-12.8283
⎬	-12.8283
⎭	-12.8283
≈	-13.8283
£	-13.8283
ı	-13.8283
∓	-13.8283
∧	-13.8283
⎢	-13.8283
⎥	-13.8283
✷	-13.8283
є	-13.8283
Ø	-13.9619
°	-13.962
@	-13.9621
⎪	-13.9622
⊗	-13.9623
Ω	-13.9624
‘	-13.9625
#	-13.9626
⇒	-13.9627
"	-13.9628
≫	-13.9629
≤	-13.963
⎠	-13.9631
⎝	-13.9632
≪	-13.9633
↔	-13.9634
≥	-13.9635
⎟	-13.9636
⎜	-13.9637
̸	-13.9638
̄	-13.9639
∝	-13.964
́	-13.9641
ł	-13.9642
∇	-13.9643
̈	-13.9644
̇	-13.9645
̃	-13.9646
⃗	-13.9647
